{
  "version": "1.0",
  "truncation": null,
  "padding": null,
  "added_tokens": [
    {
      "id": 0,
      "content": "[PAD]",
      "single_word": false,
      "lstrip": false,
      "rstrip": false,
      "normalized": false,
      "special": true
    },
    {
      "id": 1,
      "content": "[UNK]",
      "single_word": false,
      "lstrip": false,
      "rstrip": false,
      "normalized": false,
      "special": true
    },
    {
      "id": 2,
      "content": "[CLS]",
      "single_word": false,
      "lstrip": false,
      "rstrip": false,
      "normalized": false,
      "special": true
    },
    {
      "id": 3,
      "content": "[SEP]",
      "single_word": false,
      "lstrip": false,
      "rstrip": false,
      "normalized": false,
      "special": true
    },
    {
      "id": 4,
      "content": "[MASK]",
      "single_word": false,
      "lstrip": false,
      "rstrip": false,
      "normalized": false,
      "special": true
    }
  ],
  "normalizer": null,
  "pre_tokenizer": {
    "type": "Whitespace"
  },
  "post_processor": null,
  "decoder": null,
  "model": {
    "type": "BPE",
    "dropout": null,
    "unk_token": "[UNK]",
    "continuing_subword_prefix": null,
    "end_of_word_suffix": null,
    "fuse_unk": false,
    "byte_fallback": false,
    "ignore_merges": false,
    "vocab": {
      "[PAD]": 0,
      "[UNK]": 1,
      "[CLS]": 2,
      "[SEP]": 3,
      "[MASK]": 4,
      "'": 5,
      "-": 6,
      "a": 7,
      "b": 8,
      "c": 9,
      "d": 10,
      "e": 11,
      "f": 12,
      "g": 13,
      "h": 14,
      "i": 15,
      "j": 16,
      "k": 17,
      "l": 18,
      "m": 19,
      "n": 20,
      "o": 21,
      "p": 22,
      "q": 23,
      "r": 24,
      "s": 25,
      "t": 26,
      "u": 27,
      "v": 28,
      "w": 29,
      "x": 30,
      "y": 31,
      "z": 32,
      "th": 33,
      "ou": 34,
      "in": 35,
      "re": 36,
      "an": 37,
      "the": 38,
      "you": 39,
      "at": 40,
      "to": 41,
      "on": 42,
      "er": 43,
      "it": 44,
      "ll": 45,
      "is": 46,
      "me": 47,
      "or": 48,
      "ing": 49,
      "ve": 50,
      "st": 51,
      "se": 52,
      "le": 53,
      "he": 54,
      "ha": 55,
      "we": 56,
      "ar": 57,
      "and": 58,
      "ow": 59,
      "be": 60,
      "ke": 61,
      "of": 62,
      "es": 63,
      "ay": 64,
      "en": 65,
      "that": 66,
      "wh": 67,
      "do": 68,
      "for": 69,
      "go": 70,
      "so": 71,
      "ic": 72,
      "as": 73,
      "have": 74,
      "al": 75,
      "wi": 76,
      "all": 77,
      "ld": 78,
      "are": 79,
      "ch": 80,
      "li": 81,
      "ed": 82,
      "ut": 83,
      "ro": 84,
      "gh": 85,
      "co": 86,
      "no": 87,
      "ver": 88,
      "what": 89,
      "can": 90,
      "id": 91,
      "ge": 92,
      "lo": 93,
      "ne": 94,
      "your": 95,
      "ould": 96,
      "ri": 97,
      "ac": 98,
      "my": 99,
      "out": 100,
      "ab": 101,
      "nt": 102,
      "ght": 103,
      "ion": 104,
      "ad": 105,
      "su": 106,
      "now": 107,
      "ir": 108,
      "one": 109,
      "this": 110,
      "like": 111,
      "ly": 112,
      "but": 113,
      "how": 114,
      "mo": 115,
      "am": 116,
      "with": 117,
      "any": 118,
      "od": 119,
      "ter": 120,
      "ok": 121,
      "ti": 122,
      "ple": 123,
      "if": 124,
      "here": 125,
      "pe": 126,
      "our": 127,
      "ake": 128,
      "te": 129,
      "some": 130,
      "ink": 131,
      "ust": 132,
      "don": 133,
      "ant": 134,
      "very": 135,
      "will": 136,
      "get": 137,
      "there": 138,
      "about": 139,
      "day": 140,
      "fe": 141,
      "sh": 142,
      "ce": 143,
      "thing": 144,
      "not": 145,
      "tr": 146,
      "nd": 147,
      "ally": 148,
      "think": 149,
      "wor": 150,
      "us": 151,
      "yes": 152,
      "ex": 153,
      "know": 154,
      "good": 155,
      "than": 156,
      "well": 157,
      "see": 158,
      "de": 159,
      "mp": 160,
      "time": 161,
      "would": 162,
      "ther": 163,
      "was": 164,
      "just": 165,
      "ice": 166,
      "they": 167,
      "ase": 168,
      "ho": 169,
      "pro": 170,
      "ind": 171,
      "ye": 172,
      "po": 173,
      "ur": 174,
      "right": 175,
      "ry": 176,
      "want": 177,
      "per": 178,
      "did": 179,
      "thank": 180,
      "ation": 181,
      "up": 182,
      "ag": 183,
      "ment": 184,
      "ain": 185,
      "ate": 186,
      "pl": 187,
      "way": 188,
      "un": 189,
      "ine": 190,
      "art": 191,
      "use": 192,
      "take": 193,
      "please": 194,
      "ive": 195,
      "con": 196,
      "oh": 197,
      "work": 198,
      "hi": 199,
      "mu": 200,
      "let": 201,
      "ast": 202,
      "af": 203,
      "qu": 204,
      "bo": 205,
      "need": 206,
      "look": 207,
      "ct": 208,
      "really": 209,
      "come": 210,
      "much": 211,
      "too": 212,
      "ap": 213,
      "fo": 214,
      "hen": 215,
      "going": 216,
      "ight": 217,
      "ble": 218,
      "ul": 219,
      "ong": 220,
      "res": 221,
      "rom": 222,
      "il": 223,
      "ent": 224,
      "sa": 225,
      "ck": 226,
      "she": 227,
      "from": 228,
      "end": 229,
      "could": 230,
      "when": 231,
      "ound": 232,
      "new": 233,
      "hel": 234,
      "ack": 235,
      "should": 236,
      "ill": 237,
      "may": 238,
      "ard": 239,
      "help": 240,
      "jo": 241,
      "comp": 242,
      "ning": 243,
      "ig": 244,
      "che": 245,
      "then": 246,
      "ort": 247,
      "et": 248,
      "more": 249,
      "red": 250,
      "ess": 251,
      "ite": 252,
      "got": 253,
      "make": 254,
      "off": 255,
      "el": 256,
      "mor": 257,
      "by": 258,
      "ide": 259,
      "sure": 260,
      "act": 261,
      "pp": 262,
      "them": 263,
      "sp": 264,
      "om": 265,
      "other": 266,
      "pre": 267,
      "ak": 268,
      "gre": 269,
      "able": 270,
      "eve": 271,
      "cou": 272,
      "been": 273,
      "ra": 274,
      "where": 275,
      "ity": 276,
      "com": 277,
      "every": 278,
      "why": 279,
      "ame": 280,
      "ers": 281,
      "bu": 282,
      "har": 283,
      "ree": 284,
      "over": 285,
      "does": 286,
      "her": 287,
      "ople": 288,
      "people": 289,
      "has": 290,
      "tell": 291,
      "ish": 292,
      "pr": 293,
      "cl": 294,
      "wo": 295,
      "room": 296,
      "own": 297,
      "mb": 298,
      "lot": 299,
      "read": 300,
      "ty": 301,
      "ie": 302,
      "rest": 303,
      "after": 304,
      "si": 305,
      "gu": 306,
      "fir": 307,
      "wee": 308,
      "ach": 309,
      "ars": 310,
      "call": 311,
      "br": 312,
      "gr": 313,
      "give": 314,
      "ous": 315,
      "count": 316,
      "mar": 317,
      "bus": 318,
      "ci": 319,
      "bet": 320,
      "man": 321,
      "great": 322,
      "spe": 323,
      "say": 324,
      "cho": 325,
      "sir": 326,
      "ough": 327,
      "sto": 328,
      "ten": 329,
      "had": 330,
      "sor": 331,
      "first": 332,
      "long": 333,
      "part": 334,
      "back": 335,
      "der": 336,
      "mon": 337,
      "lf": 338,
      "sorry": 339,
      "cour": 340,
      "night": 341,
      "ca": 342,
      "ep": 343,
      "ms": 344,
      "ving": 345,
      "two": 346,
      "who": 347,
      "proble": 348,
      "ies": 349,
      "him": 350,
      "age": 351,
      "today": 352,
      "won": 353,
      "try": 354,
      "many": 355,
      "fore": 356,
      "only": 357,
      "ass": 358,
      "chan": 359,
      "ol": 360,
      "job": 361,
      "ure": 362,
      "les": 363,
      "anything": 364,
      "gl": 365,
      "course": 366,
      "xt": 367,
      "und": 368,
      "most": 369,
      "ave": 370,
      "something": 371,
      "company": 372,
      "pay": 373,
      "ick": 374,
      "ace": 375,
      "mber": 376,
      "tle": 377,
      "his": 378,
      "mis": 379,
      "row": 380,
      "min": 381,
      "fri": 382,
      "next": 383,
      "last": 384,
      "week": 385,
      "kind": 386,
      "ting": 387,
      "happ": 388,
      "ah": 389,
      "car": 390,
      "didn": 391,
      "alk": 392,
      "ser": 393,
      "sit": 394,
      "inter": 395,
      "love": 396,
      "feel": 397,
      "di": 398,
      "also": 399,
      "ich": 400,
      "nice": 401,
      "find": 402,
      "lit": 403,
      "oney": 404,
      "morning": 405,
      "better": 406,
      "ts": 407,
      "du": 408,
      "problem": 409,
      "fa": 410,
      "ans": 411,
      "ater": 412,
      "were": 413,
      "meet": 414,
      "buy": 415,
      "dis": 416,
      "thanks": 417,
      "ways": 418,
      "pen": 419,
      "ma": 420,
      "stu": 421,
      "ought": 422,
      "wr": 423,
      "ance": 424,
      "check": 425,
      "friend": 426,
      "clo": 427,
      "must": 428,
      "before": 429,
      "down": 430,
      "ked": 431,
      "cause": 432,
      "sound": 433,
      "fin": 434,
      "little": 435,
      "pa": 436,
      "ready": 437,
      "money": 438,
      "these": 439,
      "mr": 440,
      "son": 441,
      "play": 442,
      "ign": 443,
      "which": 444,
      "always": 445,
      "wa": 446,
      "inte": 447,
      "dr": 448,
      "exc": 449,
      "yeah": 450,
      "imp": 451,
      "start": 452,
      "name": 453,
      "home": 454,
      "rent": 455,
      "pt": 456,
      "urn": 457,
      "interest": 458,
      "vie": 459,
      "mad": 460,
      "maybe": 461,
      "ile": 462,
      "dif": 463,
      "things": 464,
      "put": 465,
      "month": 466,
      "again": 467,
      "lu": 468,
      "nu": 469,
      "ist": 470,
      "ask": 471,
      "atch": 472,
      "ful": 473,
      "because": 474,
      "self": 475,
      "fr": 476,
      "tor": 477,
      "wait": 478,
      "form": 479,
      "sho": 480,
      "morrow": 481,
      "tomorrow": 482,
      "ner": 483,
      "mean": 484,
      "ket": 485,
      "ions": 486,
      "cer": 487,
      "int": 488,
      "ose": 489,
      "year": 490,
      "ta": 491,
      "days": 492,
      "fine": 493,
      "still": 494,
      "ress": 495,
      "cor": 496,
      "sounds": 497,
      "never": 498,
      "aking": 499,
      "la": 500,
      "ary": 501,
      "minut": 502,
      "mind": 503,
      "stand": 504,
      "hard": 505,
      "few": 506,
      "their": 507,
      "keep": 508,
      "late": 509,
      "ouse": 510,
      "into": 511,
      "food": 512,
      "ren": 513,
      "idea": 514,
      "hope": 515,
      "show": 516,
      "ise": 517,
      "care": 518,
      "fic": 519,
      "scho": 520,
      "sm": 521,
      "ang": 522,
      "doing": 523,
      "card": 524,
      "under": 525,
      "lear": 526,
      "best": 527,
      "even": 528,
      "talk": 529,
      "turn": 530,
      "sed": 531,
      "ph": 532,
      "three": 533,
      "big": 534,
      "est": 535,
      "book": 536,
      "bad": 537,
      "isn": 538,
      "school": 539,
      "hour": 540,
      "house": 541,
      "bit": 542,
      "tri": 543,
      "bl": 544,
      "quite": 545,
      "ps": 546,
      "vis": 547,
      "around": 548,
      "change": 549,
      "stud": 550,
      "ild": 551,
      "fam": 552,
      "light": 553,
      "office": 554,
      "par": 555,
      "sha": 556,
      "iness": 557,
      "llo": 558,
      "hand": 559,
      "engl": 560,
      "working": 561,
      "plan": 562,
      "else": 563,
      "ily": 564,
      "years": 565,
      "ious": 566,
      "class": 567,
      "ss": 568,
      "ually": 569,
      "looking": 570,
      "business": 571,
      "place": 572,
      "times": 573,
      "eat": 574,
      "hello": 575,
      "raid": 576,
      "afraid": 577,
      "char": 578,
      "excuse": 579,
      "old": 580,
      "doll": 581,
      "order": 582,
      "diffe": 583,
      "english": 584,
      "im": 585,
      "made": 586,
      "usu": 587,
      "stay": 588,
      "av": 589,
      "posit": 590,
      "wel": 591,
      "everything": 592,
      "actually": 593,
      "des": 594,
      "fer": 595,
      "mer": 596,
      "ence": 597,
      "miss": 598,
      "ster": 599,
      "cial": 600,
      "ue": 601,
      "joy": 602,
      "drink": 603,
      "live": 604,
      "high": 605,
      "noon": 606,
      "another": 607,
      "doesn": 608,
      "side": 609,
      "cre": 610,
      "thought": 611,
      "ank": 612,
      "ru": 613,
      "soon": 614,
      "enjoy": 615,
      "number": 616,
      "mat": 617,
      "ste": 618,
      "vice": 619,
      "leave": 620,
      "went": 621,
      "person": 622,
      "ze": 623,
      "haven": 624,
      "air": 625,
      "account": 626,
      "eas": 627,
      "din": 628,
      "happen": 629,
      "same": 630,
      "its": 631,
      "ated": 632,
      "each": 633,
      "wonder": 634,
      "set": 635,
      "sur": 636,
      "said": 637,
      "cent": 638,
      "tain": 639,
      "tic": 640,
      "afternoon": 641,
      "dri": 642,
      "hear": 643,
      "chine": 644,
      "chinese": 645,
      "fu": 646,
      "ven": 647,
      "ash": 648,
      "while": 649,
      "those": 650,
      "cond": 651,
      "ever": 652,
      "such": 653,
      "ction": 654,
      "price": 655,
      "beli": 656,
      "amer": 657,
      "phone": 658,
      "heard": 659,
      "pret": 660,
      "happy": 661,
      "line": 662,
      "guess": 663,
      "usually": 664,
      "ding": 665,
      "view": 666,
      "minutes": 667,
      "bre": 668,
      "might": 669,
      "watch": 670,
      "done": 671,
      "bring": 672,
      "ip": 673,
      "ear": 674,
      "dec": 675,
      "cle": 676,
      "sk": 677,
      "import": 678,
      "aut": 679,
      "pare": 680,
      "doc": 681,
      "getting": 682,
      "dollars": 683,
      "reme": 684,
      "head": 685,
      "peri": 686,
      "believe": 687,
      "bab": 688,
      "coming": 689,
      "welcome": 690,
      "fi": 691,
      "pretty": 692,
      "produ": 693,
      "sing": 694,
      "port": 695,
      "tonight": 696,
      "already": 697,
      "comput": 698,
      "yet": 699,
      "looks": 700,
      "different": 701,
      "low": 702,
      "enough": 703,
      "five": 704,
      "ments": 705,
      "cus": 706,
      "ft": 707,
      "used": 708,
      "fun": 709,
      "rough": 710,
      "gir": 711,
      "table": 712,
      "add": 713,
      "dinner": 714,
      "ular": 715,
      "free": 716,
      "lle": 717,
      "train": 718,
      "beaut": 719,
      "worry": 720,
      "point": 721,
      "lic": 722,
      "sport": 723,
      "city": 724,
      "later": 725,
      "sent": 726,
      "unt": 727,
      "vor": 728,
      "fee": 729,
      "vers": 730,
      "okay": 731,
      "open": 732,
      "cy": 733,
      "hed": 734,
      "bro": 735,
      "meeting": 736,
      "friends": 737,
      "pu": 738,
      "away": 739,
      "ina": 740,
      "als": 741,
      "through": 742,
      "um": 743,
      "ses": 744,
      "sible": 745,
      "sid": 746,
      "understand": 747,
      "important": 748,
      "je": 749,
      "sign": 750,
      "clu": 751,
      "att": 752,
      "quest": 753,
      "pos": 754,
      "wrong": 755,
      "full": 756,
      "run": 757,
      "evening": 758,
      "small": 759,
      "often": 760,
      "speak": 761,
      "ical": 762,
      "colle": 763,
      "remember": 764,
      "king": 765,
      "tom": 766,
      "party": 767,
      "rece": 768,
      "offer": 769,
      "bank": 770,
      "family": 771,
      "life": 772,
      "cost": 773,
      "ger": 774,
      "child": 775,
      "ations": 776,
      "cur": 777,
      "ward": 778,
      "wed": 779,
      "hey": 780,
      "special": 781,
      "pect": 782,
      "nothing": 783,
      "fect": 784,
      "agree": 785,
      "service": 786,
      "computer": 787,
      "toge": 788,
      "ason": 789,
      "cont": 790,
      "together": 791,
      "cess": 792,
      "inform": 793,
      "reg": 794,
      "left": 795,
      "beautif": 796,
      "ef": 797,
      "send": 798,
      "far": 799,
      "lar": 800,
      "learn": 801,
      "americ": 802,
      "move": 803,
      "easy": 804,
      "mus": 805,
      "bed": 806,
      "sup": 807,
      "ult": 808,
      "lor": 809,
      "walk": 810,
      "real": 811,
      "ition": 812,
      "ju": 813,
      "gest": 814,
      "glad": 815,
      "fast": 816,
      "fill": 817,
      "world": 818,
      "expen": 819,
      "country": 820,
      "certain": 821,
      "ather": 822,
      "iting": 823,
      "str": 824,
      "beautiful": 825,
      "stop": 826,
      "ball": 827,
      "seems": 828,
      "ried": 829,
      "uni": 830,
      "bill": 831,
      "someone": 832,
      "ict": 833,
      "moment": 834,
      "cred": 835,
      "uan": 836,
      "ton": 837,
      "reser": 838,
      "kid": 839,
      "ities": 840,
      "kend": 841,
      "weekend": 842,
      "sal": 843,
      "having": 844,
      "au": 845,
      "ces": 846,
      "ouble": 847,
      "experi": 848,
      "bor": 849,
      "mi": 850,
      "china": 851,
      "tel": 852,
      "cept": 853,
      "med": 854,
      "teach": 855,
      "true": 856,
      "suppo": 857,
      "case": 858,
      "game": 859,
      "thir": 860,
      "four": 861,
      "alth": 862,
      "trave": 863,
      "emp": 864,
      "sin": 865,
      "nts": 866,
      "hotel": 867,
      "cof": 868,
      "inv": 869,
      "both": 870,
      "manag": 871,
      "cut": 872,
      "sive": 873,
      "told": 874,
      "ken": 875,
      "ody": 876,
      "interested": 877,
      "sat": 878,
      "depart": 879,
      "ail": 880,
      "study": 881,
      "yourself": 882,
      "apart": 883,
      "coffee": 884,
      "bir": 885,
      "ating": 886,
      "probab": 887,
      "prefer": 888,
      "smo": 889,
      "probably": 890,
      "ited": 891,
      "being": 892,
      "information": 893,
      "stre": 894,
      "sun": 895,
      "luck": 896,
      "net": 897,
      "sometimes": 898,
      "interesting": 899,
      "hours": 900,
      "lis": 901,
      "seat": 902,
      "break": 903,
      "second": 904,
      "sug": 905,
      "movie": 906,
      "girl": 907,
      "body": 908,
      "water": 909,
      "less": 910,
      "music": 911,
      "ys": 912,
      "yuan": 913,
      "aur": 914,
      "gg": 915,
      "myself": 916,
      "restaur": 917,
      "interview": 918,
      "restaurant": 919,
      "cha": 920,
      "until": 921,
      "qui": 922,
      "mary": 923,
      "mail": 924,
      "qual": 925,
      "expensive": 926,
      "sen": 927,
      "app": 928,
      "shall": 929,
      "ship": 930,
      "doctor": 931,
      "hot": 932,
      "favor": 933,
      "pping": 934,
      "ices": 935,
      "expect": 936,
      "busy": 937,
      "thinking": 938,
      "product": 939,
      "unch": 940,
      "na": 941,
      "aren": 942,
      "matter": 943,
      "once": 944,
      "pick": 945,
      "spend": 946,
      "everyone": 947,
      "ago": 948,
      "cr": 949,
      "ot": 950,
      "six": 951,
      "pres": 952,
      "sum": 953,
      "exam": 954,
      "bag": 955,
      "ates": 956,
      "yester": 957,
      "yesterday": 958,
      "ient": 959,
      "since": 960,
      "joh": 961,
      "pas": 962,
      "charge": 963,
      "manager": 964,
      "john": 965,
      "sle": 966,
      "ries": 967,
      "paper": 968,
      "certainly": 969,
      "ange": 970,
      "seen": 971,
      "ticket": 972,
      "flight": 973,
      "ount": 974,
      "half": 975,
      "near": 976,
      "ages": 977,
      "hur": 978,
      "weather": 979,
      "credit": 980,
      "wear": 981,
      "called": 982,
      "almost": 983,
      "bar": 984,
      "sou": 985,
      "war": 986,
      "emplo": 987,
      "sever": 988,
      "beg": 989,
      "cold": 990,
      "suit": 991,
      "clock": 992,
      "trip": 993,
      "experience": 994,
      "street": 995,
      "hold": 996,
      "wife": 997,
      "mach": 998,
      "cook": 999,
      "apartment": 1000,
      "ian": 1001,
      "health": 1002,
      "birth": 1003,
      "found": 1004,
      "though": 1005,
      "exact": 1006,
      "possible": 1007,
      "department": 1008,
      "parents": 1009,
      "several": 1010,
      "market": 1011,
      "happened": 1012,
      "pleas": 1013,
      "travel": 1014,
      "men": 1015,
      "gy": 1016,
      "gen": 1017,
      "taking": 1018,
      "ital": 1019,
      "az": 1020,
      "top": 1021,
      "sub": 1022,
      "terri": 1023,
      "suggest": 1024,
      "wish": 1025,
      "test": 1026,
      "univers": 1027,
      "cri": 1028,
      "main": 1029,
      "grad": 1030,
      "cen": 1031,
      "cash": 1032,
      "boss": 1033,
      "serious": 1034,
      "position": 1035,
      "clean": 1036,
      "band": 1037,
      "ves": 1038,
      "sty": 1039,
      "university": 1040,
      "cell": 1041,
      "ele": 1042,
      "fit": 1043,
      "hu": 1044,
      "color": 1045,
      "tv": 1046,
      "ted": 1047,
      "deal": 1048,
      "ath": 1049,
      "thes": 1050,
      "anyway": 1051,
      "appoint": 1052,
      "cal": 1053,
      "ved": 1054,
      "short": 1055,
      "date": 1056,
      "wind": 1057,
      "rect": 1058,
      "ters": 1059,
      "student": 1060,
      "road": 1061,
      "team": 1062,
      "reserv": 1063,
      "iz": 1064,
      "ming": 1065,
      "ny": 1066,
      "hair": 1067,
      "tract": 1068,
      "present": 1069,
      "ring": 1070,
      "ines": 1071,
      "bought": 1072,
      "perfect": 1073,
      "frid": 1074,
      "fre": 1075,
      "wn": 1076,
      "weeks": 1077,
      "sy": 1078,
      "val": 1079,
      "jing": 1080,
      "mend": 1081,
      "clothes": 1082,
      "minute": 1083,
      "ia": 1084,
      "ject": 1085,
      "erc": 1086,
      "wanted": 1087,
      "prof": 1088,
      "birthday": 1089,
      "tour": 1090,
      "word": 1091,
      "deposit": 1092,
      "ational": 1093,
      "large": 1094,
      "lost": 1095,
      "pop": 1096,
      "rel": 1097,
      "makes": 1098,
      "calling": 1099,
      "inclu": 1100,
      "blo": 1101,
      "pack": 1102,
      "pie": 1103,
      "tre": 1104,
      "llow": 1105,
      "sell": 1106,
      "uring": 1107,
      "pass": 1108,
      "news": 1109,
      "rather": 1110,
      "commend": 1111,
      "reason": 1112,
      "ished": 1113,
      "comes": 1114,
      "avail": 1115,
      "cli": 1116,
      "exerc": 1117,
      "preci": 1118,
      "exactly": 1119,
      "friday": 1120,
      "came": 1121,
      "ither": 1122,
      "ures": 1123,
      "gram": 1124,
      "tory": 1125,
      "trans": 1126,
      "saw": 1127,
      "pon": 1128,
      "recommend": 1129,
      "ident": 1130,
      "married": 1131,
      "diffic": 1132,
      "flo": 1133,
      "vac": 1134,
      "couldn": 1135,
      "talking": 1136,
      "children": 1137,
      "listen": 1138,
      "rain": 1139,
      "sol": 1140,
      "mom": 1141,
      "write": 1142,
      "visit": 1143,
      "dan": 1144,
      "begin": 1145,
      "lan": 1146,
      "making": 1147,
      "ics": 1148,
      "size": 1149,
      "mit": 1150,
      "pri": 1151,
      "forget": 1152,
      "early": 1153,
      "available": 1154,
      "ced": 1155,
      "ones": 1156,
      "tive": 1157,
      "appreci": 1158,
      "whole": 1159,
      "internet": 1160,
      "months": 1161,
      "fact": 1162,
      "return": 1163,
      "sales": 1164,
      "summer": 1165,
      "ided": 1166,
      "wouldn": 1167,
      "shopping": 1168,
      "youn": 1169,
      "bei": 1170,
      "lunch": 1171,
      "tu": 1172,
      "accept": 1173,
      "trad": 1174,
      "pport": 1175,
      "started": 1176,
      "sleep": 1177,
      "ff": 1178,
      "resu": 1179,
      "mother": 1180,
      "reservation": 1181,
      "pain": 1182,
      "tast": 1183,
      "books": 1184,
      "pend": 1185,
      "beijing": 1186,
      "aper": 1187,
      "hes": 1188,
      "trying": 1189,
      "park": 1190,
      "fac": 1191,
      "feeling": 1192,
      "couple": 1193,
      "drive": 1194,
      "during": 1195,
      "without": 1196,
      "favorite": 1197,
      "seven": 1198,
      "choose": 1199,
      "tail": 1200,
      "bas": 1201,
      "fil": 1202,
      "tal": 1203,
      "along": 1204,
      "living": 1205,
      "tea": 1206,
      "trouble": 1207,
      "program": 1208,
      "wonderful": 1209,
      "fif": 1210,
      "tired": 1211,
      "problems": 1212,
      "products": 1213,
      "dress": 1214,
      "face": 1215,
      "ative": 1216,
      "town": 1217,
      "least": 1218,
      "raw": 1219,
      "took": 1220,
      "led": 1221,
      "wasn": 1222,
      "build": 1223,
      "says": 1224,
      "national": 1225,
      "report": 1226,
      "store": 1227,
      "sides": 1228,
      "pict": 1229,
      "zy": 1230,
      "kets": 1231,
      "seem": 1232,
      "cially": 1233,
      "pleasure": 1234,
      "whe": 1235,
      "depend": 1236,
      "swe": 1237,
      "ith": 1238,
      "list": 1239,
      "haps": 1240,
      "perhaps": 1241,
      "comple": 1242,
      "ber": 1243,
      "hund": 1244,
      "land": 1245,
      "door": 1246,
      "chr": 1247,
      "quick": 1248,
      "satur": 1249,
      "hundred": 1250,
      "chance": 1251,
      "mas": 1252,
      "white": 1253,
      "boy": 1254,
      "board": 1255,
      "post": 1256,
      "chang": 1257,
      "madam": 1258,
      "personal": 1259,
      "either": 1260,
      "ling": 1261,
      "vo": 1262,
      "pet": 1263,
      "cup": 1264,
      "chic": 1265,
      "teacher": 1266,
      "twent": 1267,
      "fair": 1268,
      "ize": 1269,
      "tw": 1270,
      "sider": 1271,
      "appreciate": 1272,
      "jor": 1273,
      "oked": 1274,
      "ping": 1275,
      "consider": 1276,
      "appointment": 1277,
      "insur": 1278,
      "promis": 1279,
      "contract": 1280,
      "box": 1281,
      "ility": 1282,
      "foreign": 1283,
      "rence": 1284,
      "thirty": 1285,
      "ded": 1286,
      "oper": 1287,
      "pur": 1288,
      "weight": 1289,
      "respon": 1290,
      "black": 1291,
      "exercise": 1292,
      "ork": 1293,
      "father": 1294,
      "tax": 1295,
      "college": 1296,
      "difficult": 1297,
      "catch": 1298,
      "sche": 1299,
      "bot": 1300,
      "saturday": 1301,
      "takes": 1302,
      "guy": 1303,
      "langu": 1304,
      "ication": 1305,
      "nor": 1306,
      "espe": 1307,
      "insurance": 1308,
      "forward": 1309,
      "apply": 1310,
      "floor": 1311,
      "especially": 1312,
      "ial": 1313,
      "lt": 1314,
      "holi": 1315,
      "ately": 1316,
      "letter": 1317,
      "fully": 1318,
      "chen": 1319,
      "hus": 1320,
      "tra": 1321,
      "worked": 1322,
      "exp": 1323,
      "speaking": 1324,
      "twenty": 1325,
      "met": 1326,
      "arri": 1327,
      "join": 1328,
      "waiting": 1329,
      "receive": 1330,
      "american": 1331,
      "mine": 1332,
      "sick": 1333,
      "ween": 1334,
      "cop": 1335,
      "tried": 1336,
      "decided": 1337,
      "questions": 1338,
      "supposed": 1339,
      "vacation": 1340,
      "fl": 1341,
      "ister": 1342,
      "question": 1343,
      "salary": 1344,
      "husband": 1345,
      "past": 1346,
      "ane": 1347,
      "means": 1348,
      "major": 1349,
      "concer": 1350,
      "needs": 1351,
      "pair": 1352,
      "eight": 1353,
      "fall": 1354,
      "rate": 1355,
      "wow": 1356,
      "ator": 1357,
      "key": 1358,
      "conven": 1359,
      "popular": 1360,
      "op": 1361,
      "recent": 1362,
      "dance": 1363,
      "spo": 1364,
      "vir": 1365,
      "winter": 1366,
      "wash": 1367,
      "follow": 1368,
      "paid": 1369,
      "da": 1370,
      "vide": 1371,
      "asked": 1372,
      "young": 1373,
      "wine": 1374,
      "arr": 1375,
      "super": 1376,
      "extra": 1377,
      "law": 1378,
      "terrible": 1379,
      "style": 1380,
      "igh": 1381,
      "sof": 1382,
      "tele": 1383,
      "foot": 1384,
      "employe": 1385,
      "wall": 1386,
      "outside": 1387,
      "onest": 1388,
      "traf": 1389,
      "sale": 1390,
      "between": 1391,
      "close": 1392,
      "finished": 1393,
      "quality": 1394,
      "gener": 1395,
      "gradu": 1396,
      "hate": 1397,
      "pho": 1398,
      "rela": 1399,
      "forgot": 1400,
      "goes": 1401,
      "lose": 1402,
      "teen": 1403,
      "smith": 1404,
      "kids": 1405,
      "window": 1406,
      "schedu": 1407,
      "traffic": 1408,
      "relax": 1409,
      "ature": 1410,
      "medi": 1411,
      "eng": 1412,
      "cool": 1413,
      "rooms": 1414,
      "inst": 1415,
      "mes": 1416,
      "besides": 1417,
      "pract": 1418,
      "partic": 1419,
      "shop": 1420,
      "fish": 1421,
      "kit": 1422,
      "finish": 1423,
      "suppose": 1424,
      "prepare": 1425,
      "reading": 1426,
      "single": 1427,
      "fresh": 1428,
      "chicken": 1429,
      "mag": 1430,
      "attend": 1431,
      "profess": 1432,
      "ahead": 1433,
      "swi": 1434,
      "adv": 1435,
      "green": 1436,
      "fron": 1437,
      "building": 1438,
      "clear": 1439,
      "gets": 1440,
      "excell": 1441,
      "deli": 1442,
      "ption": 1443,
      "fix": 1444,
      "smoking": 1445,
      "ness": 1446,
      "stuff": 1447,
      "cord": 1448,
      "machine": 1449,
      "excellent": 1450,
      "bye": 1451,
      "esday": 1452,
      "discus": 1453,
      "publ": 1454,
      "christ": 1455,
      "front": 1456,
      "gs": 1457,
      "fort": 1458,
      "taken": 1459,
      "bob": 1460,
      "cks": 1461,
      "ier": 1462,
      "mov": 1463,
      "defin": 1464,
      "sim": 1465,
      "sports": 1466,
      "solut": 1467,
      "dar": 1468,
      "fig": 1469,
      "honest": 1470,
      "ins": 1471,
      "shir": 1472,
      "type": 1473,
      "swim": 1474,
      "dro": 1475,
      "grand": 1476,
      "recei": 1477,
      "movies": 1478,
      "manage": 1479,
      "playing": 1480,
      "stead": 1481,
      "syste": 1482,
      "bi": 1483,
      "draw": 1484,
      "flow": 1485,
      "gif": 1486,
      "ls": 1487,
      "stra": 1488,
      "ield": 1489,
      "docu": 1490,
      "cam": 1491,
      "online": 1492,
      "step": 1493,
      "arch": 1494,
      "suc": 1495,
      "kinds": 1496,
      "decis": 1497,
      "passport": 1498,
      "definite": 1499,
      "dad": 1500,
      "mid": 1501,
      "velo": 1502,
      "station": 1503,
      "len": 1504,
      "sort": 1505,
      "thous": 1506,
      "using": 1507,
      "project": 1508,
      "astic": 1509,
      "america": 1510,
      "thousand": 1511,
      "fash": 1512,
      "lea": 1513,
      "asses": 1514,
      "anyone": 1515,
      "pped": 1516,
      "tickets": 1517,
      "lucky": 1518,
      "cra": 1519,
      "jack": 1520,
      "become": 1521,
      "alright": 1522,
      "goods": 1523,
      "seeing": 1524,
      "aw": 1525,
      "cover": 1526,
      "recently": 1527,
      "blu": 1528,
      "gone": 1529,
      "ili": 1530,
      "york": 1531,
      "rib": 1532,
      "tific": 1533,
      "countries": 1534,
      "christmas": 1535,
      "cap": 1536,
      "uc": 1537,
      "pol": 1538,
      "plac": 1539,
      "brother": 1540,
      "straight": 1541,
      "field": 1542,
      "inve": 1543,
      "instead": 1544,
      "discount": 1545,
      "cake": 1546,
      "requi": 1547,
      "photo": 1548,
      "fashion": 1549,
      "double": 1550,
      "eyes": 1551,
      "nty": 1552,
      "amount": 1553,
      "address": 1554,
      "transfer": 1555,
      "holiday": 1556,
      "mic": 1557,
      "oc": 1558,
      "ann": 1559,
      "web": 1560,
      "advice": 1561,
      "choice": 1562,
      "design": 1563,
      "custo": 1564,
      "var": 1565,
      "veget": 1566,
      "lots": 1567,
      "complete": 1568,
      "kitchen": 1569,
      "honey": 1570,
      "sand": 1571,
      "wan": 1572,
      "total": 1573,
      "ross": 1574,
      "worth": 1575,
      "monday": 1576,
      "training": 1577,
      "games": 1578,
      "ob": 1579,
      "opport": 1580,
      "temp": 1581,
      "wants": 1582,
      "conf": 1583,
      "lovely": 1584,
      "direct": 1585,
      "shoes": 1586,
      "hurry": 1587,
      "opportun": 1588,
      "cing": 1589,
      "lon": 1590,
      "promo": 1591,
      "save": 1592,
      "surpr": 1593,
      "convenient": 1594,
      "receipt": 1595,
      "hor": 1596,
      "mount": 1597,
      "nine": 1598,
      "kidding": 1599,
      "system": 1600,
      "ouch": 1601,
      "mention": 1602,
      "appl": 1603,
      "ground": 1604,
      "current": 1605,
      "blue": 1606,
      "por": 1607,
      "tion": 1608,
      "ual": 1609,
      "ref": 1610,
      "ties": 1611,
      "detail": 1612,
      "famous": 1613,
      "watching": 1614,
      "sense": 1615,
      "definitely": 1616,
      "wer": 1617,
      "vert": 1618,
      "mum": 1619,
      "que": 1620,
      "intro": 1621,
      "planning": 1622,
      "leaving": 1623,
      "cas": 1624,
      "enter": 1625,
      "log": 1626,
      "dear": 1627,
      "ention": 1628,
      "handle": 1629,
      "language": 1630,
      "crazy": 1631,
      "song": 1632,
      "heart": 1633,
      "develo": 1634,
      "cked": 1635,
      "gent": 1636,
      "mm": 1637,
      "search": 1638,
      "area": 1639,
      "soup": 1640,
      "treat": 1641,
      "taste": 1642,
      "whether": 1643,
      "promise": 1644,
      "schedule": 1645,
      "discuss": 1646,
      "decision": 1647,
      "sli": 1648,
      "god": 1649,
      "neigh": 1650,
      "ants": 1651,
      "mark": 1652,
      "careful": 1653,
      "desk": 1654,
      "club": 1655,
      "students": 1656,
      "os": 1657,
      "pan": 1658,
      "lead": 1659,
      "tru": 1660,
      "shouldn": 1661,
      "ills": 1662,
      "grow": 1663,
      "success": 1664,
      "bal": 1665,
      "dy": 1666,
      "sister": 1667,
      "meat": 1668,
      "ford": 1669,
      "vern": 1670,
      "perfor": 1671,
      "plans": 1672,
      "ilk": 1673,
      "serv": 1674,
      "bath": 1675,
      "dam": 1676,
      "sel": 1677,
      "secre": 1678,
      "heav": 1679,
      "local": 1680,
      "tech": 1681,
      "sage": 1682,
      "firm": 1683,
      "exciting": 1684,
      "tai": 1685,
      "running": 1686,
      "contact": 1687,
      "piece": 1688,
      "employees": 1689,
      "mountain": 1690,
      "furn": 1691,
      "pat": 1692,
      "exchange": 1693,
      "international": 1694,
      "wedding": 1695,
      "strong": 1696,
      "studying": 1697,
      "cat": 1698,
      "hang": 1699,
      "libr": 1700,
      "ung": 1701,
      "others": 1702,
      "particular": 1703,
      "public": 1704,
      "pound": 1705,
      "star": 1706,
      "advert": 1707,
      "ressed": 1708,
      "sib": 1709,
      "grap": 1710,
      "jim": 1711,
      "org": 1712,
      "baby": 1713,
      "breakfast": 1714,
      "london": 1715,
      "fut": 1716,
      "absolut": 1717,
      "newsp": 1718,
      "fru": 1719,
      "regular": 1720,
      "example": 1721,
      "invest": 1722,
      "library": 1723,
      "future": 1724,
      "absolute": 1725,
      "newspaper": 1726,
      "base": 1727,
      "cu": 1728,
      "hit": 1729,
      "round": 1730,
      "vi": 1731,
      "icy": 1732,
      "necess": 1733,
      "accor": 1734,
      "comfor": 1735,
      "wondering": 1736,
      "decide": 1737,
      "contin": 1738,
      "aught": 1739,
      "medic": 1740,
      "film": 1741,
      "quickly": 1742,
      "den": 1743,
      "gi": 1744,
      "ric": 1745,
      "stick": 1746,
      "plenty": 1747,
      "del": 1748,
      "plain": 1749,
      "payment": 1750,
      "writing": 1751,
      "picture": 1752,
      "introdu": 1753,
      "secret": 1754,
      "record": 1755,
      "govern": 1756,
      "educ": 1757,
      "degre": 1758,
      "appe": 1759,
      "comm": 1760,
      "brand": 1761,
      "longer": 1762,
      "finally": 1763,
      "driving": 1764,
      "gift": 1765,
      "performan": 1766,
      "comfortable": 1767,
      "dre": 1768,
      "rid": 1769,
      "vin": 1770,
      "win": 1771,
      "loan": 1772,
      "riend": 1773,
      "percent": 1774,
      "depends": 1775,
      "places": 1776,
      "fly": 1777,
      "vid": 1778,
      "vate": 1779,
      "amaz": 1780,
      "polic": 1781,
      "conne": 1782,
      "ches": 1783,
      "counter": 1784,
      "lfriend": 1785,
      "girlfriend": 1786,
      "football": 1787,
      "according": 1788,
      "camer": 1789,
      "fren": 1790,
      "mill": 1791,
      "touch": 1792,
      "oud": 1793,
      "bene": 1794,
      "ific": 1795,
      "except": 1796,
      "works": 1797,
      "aff": 1798,
      "compan": 1799,
      "answer": 1800,
      "magaz": 1801,
      "vegetable": 1802,
      "bur": 1803,
      "san": 1804,
      "tur": 1805,
      "roll": 1806,
      "hosp": 1807,
      "itional": 1808,
      "sunday": 1809,
      "absolutely": 1810,
      "french": 1811,
      "dav": 1812,
      "jap": 1813,
      "ught": 1814,
      "onment": 1815,
      "envir": 1816,
      "cel": 1817,
      "classes": 1818,
      "guest": 1819,
      "guys": 1820,
      "brown": 1821,
      "impro": 1822,
      "asking": 1823,
      "quiet": 1824,
      "heavy": 1825,
      "ched": 1826,
      "excited": 1827,
      "bedroom": 1828,
      "satis": 1829,
      "environment": 1830,
      "cars": 1831,
      "eye": 1832,
      "lin": 1833,
      "wom": 1834,
      "stock": 1835,
      "carry": 1836,
      "correct": 1837,
      "eating": 1838,
      "attention": 1839,
      "girls": 1840,
      "police": 1841,
      "organ": 1842,
      "amazing": 1843,
      "afford": 1844,
      "safe": 1845,
      "saying": 1846,
      "employ": 1847,
      "healthy": 1848,
      "arrange": 1849,
      "hospital": 1850,
      "woman": 1851,
      "sight": 1852,
      "beer": 1853,
      "supp": 1854,
      "notice": 1855,
      "space": 1856,
      "final": 1857,
      "learning": 1858,
      "skin": 1859,
      "government": 1860,
      "david": 1861,
      "econ": 1862,
      "egg": 1863,
      "knew": 1864,
      "meal": 1865,
      "diet": 1866,
      "difference": 1867,
      "cream": 1868,
      "learned": 1869,
      "elec": 1870,
      "resume": 1871,
      "washing": 1872,
      "swimming": 1873,
      "develop": 1874,
      "companies": 1875,
      "daught": 1876,
      "erature": 1877,
      "delic": 1878,
      "plane": 1879,
      "words": 1880,
      "client": 1881,
      "fortun": 1882,
      "performance": 1883,
      "site": 1884,
      "sci": 1885,
      "state": 1886,
      "iced": 1887,
      "allow": 1888,
      "spring": 1889,
      "history": 1890,
      "rush": 1891,
      "airport": 1892,
      "custom": 1893,
      "management": 1894,
      "application": 1895,
      "cident": 1896,
      "ned": 1897,
      "sco": 1898,
      "reli": 1899,
      "vel": 1900,
      "worried": 1901,
      "ural": 1902,
      "prices": 1903,
      "assist": 1904,
      "lugg": 1905,
      "enjoyed": 1906,
      "condition": 1907,
      "mike": 1908,
      "simple": 1909,
      "necessary": 1910,
      "pm": 1911,
      "ised": 1912,
      "staff": 1913,
      "within": 1914,
      "trust": 1915,
      "apple": 1916,
      "opin": 1917,
      "ctor": 1918,
      "gar": 1919,
      "squ": 1920,
      "ising": 1921,
      "active": 1922,
      "ext": 1923,
      "pot": 1924,
      "typ": 1925,
      "buying": 1926,
      "cards": 1927,
      "costs": 1928,
      "contro": 1929,
      "details": 1930,
      "selves": 1931,
      "electr": 1932,
      "luggage": 1933,
      "gave": 1934,
      "uce": 1935,
      "vous": 1936,
      "lent": 1937,
      "load": 1938,
      "aster": 1939,
      "compl": 1940,
      "jobs": 1941,
      "iled": 1942,
      "private": 1943,
      "copy": 1944,
      "medicine": 1945,
      "ctive": 1946,
      "lad": 1947,
      "mater": 1948,
      "ond": 1949,
      "dog": 1950,
      "cannot": 1951,
      "yours": 1952,
      "sue": 1953,
      "anymore": 1954,
      "somewhere": 1955,
      "dire": 1956,
      "nervous": 1957,
      "cooking": 1958,
      "neighbor": 1959,
      "flu": 1960,
      "hind": 1961,
      "kill": 1962,
      "nic": 1963,
      "ride": 1964,
      "sme": 1965,
      "season": 1966,
      "whatever": 1967,
      "ustr": 1968,
      "poor": 1969,
      "telling": 1970,
      "given": 1971,
      "trade": 1972,
      "taxi": 1973,
      "graph": 1974,
      "vegetables": 1975,
      "daughter": 1976,
      "cand": 1977,
      "fits": 1978,
      "match": 1979,
      "slow": 1980,
      "inside": 1981,
      "section": 1982,
      "accident": 1983,
      "tee": 1984,
      "uses": 1985,
      "everybody": 1986,
      "women": 1987,
      "corner": 1988,
      "lately": 1989,
      "visa": 1990,
      "parking": 1991,
      "drinks": 1992,
      "higher": 1993,
      "blood": 1994,
      "tuesday": 1995,
      "received": 1996,
      "fruit": 1997,
      "fur": 1998,
      "gain": 1999,
      "incre": 2000,
      "anim": 2001,
      "hai": 2002,
      "provide": 2003,
      "mrs": 2004,
      "regis": 2005,
      "customer": 2006,
      "dut": 2007,
      "menu": 2008,
      "beef": 2009,
      "behind": 2010,
      "lier": 2011,
      "ability": 2012,
      "indust": 2013,
      "overtime": 2014,
      "cla": 2015,
      "wood": 2016,
      "latest": 2017,
      "driver": 2018,
      "third": 2019,
      "subway": 2020,
      "package": 2021,
      "shirt": 2022,
      "documents": 2023,
      "non": 2024,
      "shi": 2025,
      "proper": 2026,
      "appro": 2027,
      "items": 2028,
      "choco": 2029,
      "anger": 2030,
      "famili": 2031,
      "warm": 2032,
      "cription": 2033,
      "sweet": 2034,
      "concert": 2035,
      "message": 2036,
      "commun": 2037,
      "hon": 2038,
      "states": 2039,
      "ney": 2040,
      "likes": 2041,
      "tiv": 2042,
      "dead": 2043,
      "quit": 2044,
      "cted": 2045,
      "spent": 2046,
      "mbers": 2047,
      "certific": 2048,
      "skills": 2049,
      "period": 2050,
      "fortunately": 2051,
      "fat": 2052,
      "sometime": 2053,
      "ilities": 2054,
      "cheap": 2055,
      "factory": 2056,
      "twice": 2057,
      "delivery": 2058,
      "flowers": 2059,
      "customers": 2060,
      "vered": 2061,
      "west": 2062,
      "icle": 2063,
      "covered": 2064,
      "ade": 2065,
      "tire": 2066,
      "cheaper": 2067,
      "courses": 2068,
      "vision": 2069,
      "relation": 2070,
      "services": 2071,
      "dream": 2072,
      "dle": 2073,
      "mate": 2074,
      "pow": 2075,
      "sam": 2076,
      "va": 2077,
      "ert": 2078,
      "leg": 2079,
      "beach": 2080,
      "unk": 2081,
      "arden": 2082,
      "finan": 2083,
      "pull": 2084,
      "gym": 2085,
      "require": 2086,
      "pounds": 2087,
      "improve": 2088,
      "apo": 2089,
      "lts": 2090,
      "nat": 2091,
      "nis": 2092,
      "wang": 2093,
      "onna": 2094,
      "loc": 2095,
      "willing": 2096,
      "explain": 2097,
      "urs": 2098,
      "charg": 2099,
      "mission": 2100,
      "changed": 2101,
      "soft": 2102,
      "practice": 2103,
      "figure": 2104,
      "policy": 2105,
      "gage": 2106,
      "ied": 2107,
      "throw": 2108,
      "steven": 2109,
      "wever": 2110,
      "ically": 2111,
      "tie": 2112,
      "worse": 2113,
      "however": 2114,
      "grou": 2115,
      "happens": 2116,
      "moved": 2117,
      "salad": 2118,
      "dark": 2119,
      "completely": 2120,
      "giving": 2121,
      "delicious": 2122,
      "control": 2123,
      "bon": 2124,
      "gas": 2125,
      "jane": 2126,
      "tall": 2127,
      "remind": 2128,
      "ery": 2129,
      "ache": 2130,
      "shang": 2131,
      "saving": 2132,
      "checking": 2133,
      "broke": 2134,
      "collect": 2135,
      "opinion": 2136,
      "dry": 2137,
      "ings": 2138,
      "ency": 2139,
      "liked": 2140,
      "action": 2141,
      "print": 2142,
      "brought": 2143,
      "writ": 2144,
      "impress": 2145,
      "against": 2146,
      "cents": 2147,
      "hurt": 2148,
      "express": 2149,
      "middle": 2150,
      "opportunity": 2151,
      "gonna": 2152,
      "snow": 2153,
      "ues": 2154,
      "itions": 2155,
      "wester": 2156,
      "ense": 2157,
      "note": 2158,
      "dishes": 2159,
      "charac": 2160,
      "fire": 2161,
      "effect": 2162,
      "cribe": 2163,
      "fifteen": 2164,
      "pictures": 2165,
      "telephone": 2166,
      "drop": 2167,
      "complain": 2168,
      "increase": 2169,
      "shanghai": 2170,
      "dess": 2171,
      "iture": 2172,
      "abroad": 2173,
      "support": 2174,
      "tran": 2175,
      "aged": 2176,
      "quar": 2177,
      "bother": 2178,
      "paying": 2179,
      "usual": 2180,
      "funny": 2181,
      "south": 2182,
      "further": 2183,
      "hung": 2184,
      "mac": 2185,
      "sti": 2186,
      "arm": 2187,
      "ays": 2188,
      "lies": 2189,
      "coat": 2190,
      "logy": 2191,
      "susan": 2192,
      "withdraw": 2193,
      "terms": 2194,
      "died": 2195,
      "corpor": 2196,
      "center": 2197,
      "fifty": 2198,
      "professor": 2199,
      "truth": 2200,
      "education": 2201,
      "smell": 2202,
      "chocolate": 2203,
      "cult": 2204,
      "eu": 2205,
      "hong": 2206,
      "jen": 2207,
      "thurs": 2208,
      "lebr": 2209,
      "moving": 2210,
      "ference": 2211,
      "celebr": 2212,
      "process": 2213,
      "booked": 2214,
      "bud": 2215,
      "player": 2216,
      "bottle": 2217,
      "rout": 2218,
      "stress": 2219,
      "ional": 2220,
      "common": 2221,
      "story": 2222,
      "dollar": 2223,
      "imag": 2224,
      "earlier": 2225,
      "dancing": 2226,
      "promotion": 2227,
      "furniture": 2228,
      "degree": 2229,
      "camera": 2230,
      "western": 2231,
      "fund": 2232,
      "garden": 2233,
      "milk": 2234,
      "oil": 2235,
      "pity": 2236,
      "sn": 2237,
      "wise": 2238,
      "xx": 2239,
      "zen": 2240,
      "ancy": 2241,
      "alone": 2242,
      "united": 2243,
      "ideas": 2244,
      "turned": 2245,
      "easier": 2246,
      "pressure": 2247,
      "centr": 2248,
      "results": 2249,
      "norm": 2250,
      "ba": 2251,
      "dish": 2252,
      "jam": 2253,
      "pic": 2254,
      "wat": 2255,
      "zer": 2256,
      "track": 2257,
      "poll": 2258,
      "raise": 2259,
      "tennis": 2260,
      "hands": 2261,
      "immedi": 2262,
      "beginning": 2263,
      "responsible": 2264,
      "crow": 2265,
      "rich": 2266,
      "xi": 2267,
      "ints": 2268,
      "kept": 2269,
      "illy": 2270,
      "share": 2271,
      "settle": 2272,
      "boring": 2273,
      "camp": 2274,
      "bri": 2275,
      "bread": 2276,
      "equ": 2277,
      "fant": 2278,
      "ris": 2279,
      "scre": 2280,
      "une": 2281,
      "memor": 2282,
      "vent": 2283,
      "stair": 2284,
      "sold": 2285,
      "aret": 2286,
      "tered": 2287,
      "hob": 2288,
      "chee": 2289,
      "checked": 2290,
      "spicy": 2291,
      "staying": 2292,
      "drinking": 2293,
      "broken": 2294,
      "flat": 2295,
      "taiwan": 2296,
      "introduce": 2297,
      "thursday": 2298,
      "bow": 2299,
      "dou": 2300,
      "fare": 2301,
      "fight": 2302,
      "ki": 2303,
      "vious": 2304,
      "yo": 2305,
      "mess": 2306,
      "seme": 2307,
      "keting": 2308,
      "nel": 2309,
      "speed": 2310,
      "missed": 2311,
      "walking": 2312,
      "square": 2313,
      "euro": 2314,
      "stairs": 2315,
      "lab": 2316,
      "owed": 2317,
      "chat": 2318,
      "looked": 2319,
      "exhi": 2320,
      "ulations": 2321,
      "standard": 2322,
      "lights": 2323,
      "colleag": 2324,
      "agreement": 2325,
      "juice": 2326,
      "bags": 2327,
      "purcha": 2328,
      "power": 2329,
      "hungry": 2330,
      "semester": 2331,
      "wast": 2332,
      "za": 2333,
      "allowed": 2334,
      "aches": 2335,
      "adi": 2336,
      "motor": 2337,
      "peter": 2338,
      "offic": 2339,
      "marketing": 2340,
      "situ": 2341,
      "due": 2342,
      "starting": 2343,
      "frank": 2344,
      "career": 2345,
      "fied": 2346,
      "smoke": 2347,
      "itor": 2348,
      "oo": 2349,
      "scen": 2350,
      "inspe": 2351,
      "lect": 2352,
      "rob": 2353,
      "anywhere": 2354,
      "knowled": 2355,
      "consu": 2356,
      "spare": 2357,
      "fried": 2358,
      "fault": 2359,
      "steak": 2360,
      "easily": 2361,
      "wards": 2362,
      "jump": 2363,
      "shipment": 2364,
      "subject": 2365,
      "arrive": 2366,
      "prepared": 2367,
      "financial": 2368,
      "cig": 2369,
      "wake": 2370,
      "ination": 2371,
      "tot": 2372,
      "forty": 2373,
      "term": 2374,
      "serve": 2375,
      "keeping": 2376,
      "foods": 2377,
      "smart": 2378,
      "conditions": 2379,
      "earth": 2380,
      "lower": 2381,
      "born": 2382,
      "invol": 2383,
      "qualif": 2384,
      "expected": 2385,
      "human": 2386,
      "graduate": 2387,
      "engine": 2388,
      "dessert": 2389,
      "cast": 2390,
      "jan": 2391,
      "jour": 2392,
      "rice": 2393,
      "research": 2394,
      "nose": 2395,
      "dest": 2396,
      "ety": 2397,
      "simp": 2398,
      "glass": 2399,
      "mistake": 2400,
      "computers": 2401,
      "license": 2402,
      "borrow": 2403,
      "seats": 2404,
      "website": 2405,
      "temperature": 2406,
      "fantastic": 2407,
      "exhibit": 2408,
      "ials": 2409,
      "pal": 2410,
      "sw": 2411,
      "shar": 2412,
      "sea": 2413,
      "lie": 2414,
      "activ": 2415,
      "nowad": 2416,
      "tration": 2417,
      "hood": 2418,
      "confirm": 2419,
      "marri": 2420,
      "caught": 2421,
      "mini": 2422,
      "homework": 2423,
      "miles": 2424,
      "invite": 2425,
      "responsib": 2426,
      "industry": 2427,
      "doub": 2428,
      "austr": 2429,
      "email": 2430,
      "lines": 2431,
      "master": 2432,
      "nobody": 2433,
      "festi": 2434,
      "knows": 2435,
      "decl": 2436,
      "compet": 2437,
      "nights": 2438,
      "divor": 2439,
      "auto": 2440,
      "chall": 2441,
      "including": 2442,
      "basket": 2443,
      "spot": 2444,
      "general": 2445,
      "totally": 2446,
      "nowadays": 2447,
      "austral": 2448,
      "bid": 2449,
      "oth": 2450,
      "press": 2451,
      "tough": 2452,
      "oun": 2453,
      "ists": 2454,
      "aran": 2455,
      "neck": 2456,
      "noticed": 2457,
      "known": 2458,
      "ctions": 2459,
      "guaran": 2460,
      "finding": 2461,
      "included": 2462,
      "reasonable": 2463,
      "boxes": 2464,
      "instru": 2465,
      "animals": 2466,
      "natural": 2467,
      "gth": 2468,
      "mou": 2469,
      "nut": 2470,
      "oly": 2471,
      "orge": 2472,
      "moder": 2473,
      "tern": 2474,
      "till": 2475,
      "unfortunately": 2476,
      "ended": 2477,
      "calls": 2478,
      "gives": 2479,
      "spec": 2480,
      "mostly": 2481,
      "shows": 2482,
      "ized": 2483,
      "advertise": 2484,
      "certificate": 2485,
      "apolog": 2486,
      "cable": 2487,
      "gate": 2488,
      "rose": 2489,
      "tial": 2490,
      "deep": 2491,
      "hoping": 2492,
      "needed": 2493,
      "ilt": 2494,
      "surely": 2495,
      "standing": 2496,
      "deser": 2497,
      "faster": 2498,
      "expecting": 2499,
      "passed": 2500,
      "anese": 2501,
      "familiar": 2502,
      "savings": 2503,
      "transport": 2504,
      "olymp": 2505,
      "muse": 2506,
      "vol": 2507,
      "wal": 2508,
      "anish": 2509,
      "lly": 2510,
      "meters": 2511,
      "ica": 2512,
      "cock": 2513,
      "suits": 2514,
      "export": 2515,
      "urgent": 2516,
      "lives": 2517,
      "baggage": 2518,
      "include": 2519,
      "pieces": 2520,
      "sweater": 2521,
      "video": 2522,
      "medium": 2523,
      "professional": 2524,
      "advant": 2525,
      "bike": 2526,
      "benefits": 2527,
      "immediately": 2528,
      "danger": 2529,
      "sar": 2530,
      "ances": 2531,
      "itch": 2532,
      "seas": 2533,
      "habit": 2534,
      "gold": 2535,
      "felt": 2536,
      "pool": 2537,
      "built": 2538,
      "played": 2539,
      "laund": 2540,
      "rules": 2541,
      "ski": 2542,
      "wedn": 2543,
      "traditional": 2544,
      "bottom": 2545,
      "eggs": 2546,
      "cigaret": 2547,
      "bat": 2548,
      "ni": 2549,
      "oid": 2550,
      "piz": 2551,
      "lease": 2552,
      "loy": 2553,
      "helpful": 2554,
      "hasn": 2555,
      "marry": 2556,
      "fax": 2557,
      "paul": 2558,
      "skir": 2559,
      "mix": 2560,
      "pleasant": 2561,
      "advance": 2562,
      "successful": 2563,
      "guests": 2564,
      "relationship": 2565,
      "group": 2566,
      "colleagues": 2567,
      "purchase": 2568,
      "waste": 2569,
      "doubt": 2570,
      "festival": 2571,
      "wednesday": 2572,
      "ds": 2573,
      "kong": 2574,
      "pc": 2575,
      "thor": 2576,
      "member": 2577,
      "hall": 2578,
      "ben": 2579,
      "cooper": 2580,
      "decor": 2581,
      "upset": 2582,
      "spanish": 2583,
      "stor": 2584,
      "himself": 2585,
      "sitting": 2586,
      "starts": 2587,
      "appli": 2588,
      "president": 2589,
      "nearly": 2590,
      "television": 2591,
      "secretary": 2592,
      "clients": 2593,
      "claim": 2594,
      "cheese": 2595,
      "kilo": 2596,
      "knowledge": 2597,
      "cab": 2598,
      "ders": 2599,
      "fle": 2600,
      "ks": 2601,
      "lake": 2602,
      "lap": 2603,
      "rant": 2604,
      "tance": 2605,
      "issue": 2606,
      "meals": 2607,
      "weak": 2608,
      "bell": 2609,
      "ener": 2610,
      "dozen": 2611,
      "acket": 2612,
      "mood": 2613,
      "tight": 2614,
      "dered": 2615,
      "helping": 2616,
      "stores": 2617,
      "friendly": 2618,
      "formal": 2619,
      "keeps": 2620,
      "schools": 2621,
      "reserve": 2622,
      "experien": 2623,
      "champ": 2624,
      "traveling": 2625,
      "cleaning": 2626,
      "listening": 2627,
      "painting": 2628,
      "deliver": 2629,
      "surprised": 2630,
      "bathroom": 2631,
      "magazine": 2632,
      "campus": 2633,
      "marriage": 2634,
      "apologize": 2635,
      "bright": 2636,
      "omy": 2637,
      "radi": 2638,
      "umb": 2639,
      "attr": 2640,
      "ors": 2641,
      "stru": 2642,
      "secur": 2643,
      "goti": 2644,
      "cancel": 2645,
      "negoti": 2646,
      "among": 2647,
      "pleased": 2648,
      "hill": 2649,
      "gue": 2650,
      "guide": 2651,
      "shape": 2652,
      "leaves": 2653,
      "understanding": 2654,
      "colors": 2655,
      "boyfriend": 2656,
      "tware": 2657,
      "software": 2658,
      "continue": 2659,
      "assistant": 2660,
      "jenny": 2661,
      "situation": 2662,
      "laundry": 2663,
      "attractive": 2664,
      "cir": 2665,
      "cross": 2666,
      "mand": 2667,
      "owe": 2668,
      "ug": 2669,
      "inde": 2670,
      "itu": 2671,
      "beat": 2672,
      "lia": 2673,
      "col": 2674,
      "ril": 2675,
      "prote": 2676,
      "pose": 2677,
      "useful": 2678,
      "everyday": 2679,
      "impressed": 2680,
      "cared": 2681,
      "bigger": 2682,
      "accounting": 2683,
      "push": 2684,
      "travell": 2685,
      "invited": 2686,
      "suggestions": 2687,
      "document": 2688,
      "various": 2689,
      "wanna": 2690,
      "surprise": 2691,
      "japan": 2692,
      "imagine": 2693,
      "simply": 2694,
      "mouth": 2695,
      "pizza": 2696,
      "emb": 2697,
      "fing": 2698,
      "ieve": 2699,
      "ience": 2700,
      "silly": 2701,
      "anti": 2702,
      "vey": 2703,
      "ham": 2704,
      "soci": 2705,
      "rock": 2706,
      "canad": 2707,
      "button": 2708,
      "fees": 2709,
      "monthly": 2710,
      "angry": 2711,
      "describe": 2712,
      "climb": 2713,
      "paint": 2714,
      "fixed": 2715,
      "screen": 2716,
      "ire": 2717,
      "pin": 2718,
      "stri": 2719,
      "dogs": 2720,
      "lim": 2721,
      "goodbye": 2722,
      "delive": 2723,
      "plus": 2724,
      "lets": 2725,
      "april": 2726,
      "otherwise": 2727,
      "brit": 2728,
      "stories": 2729,
      "loves": 2730,
      "phys": 2731,
      "production": 2732,
      "cases": 2733,
      "crit": 2734,
      "prescription": 2735,
      "nearby": 2736,
      "machines": 2737,
      "valu": 2738,
      "programs": 2739,
      "daily": 2740,
      "based": 2741,
      "modern": 2742,
      "indeed": 2743,
      "delivered": 2744,
      "bra": 2745,
      "buses": 2746,
      "sion": 2747,
      "reach": 2748,
      "retire": 2749,
      "held": 2750,
      "noise": 2751,
      "ads": 2752,
      "text": 2753,
      "fell": 2754,
      "uncle": 2755,
      "workers": 2756,
      "quet": 2757,
      "everywhere": 2758,
      "cafe": 2759,
      "shower": 2760,
      "visiting": 2761,
      "stayed": 2762,
      "curren": 2763,
      "wearing": 2764,
      "huh": 2765,
      "huge": 2766,
      "films": 2767,
      "atives": 2768,
      "languages": 2769,
      "arrived": 2770,
      "graduated": 2771,
      "photos": 2772,
      "written": 2773,
      "pollut": 2774,
      "europe": 2775,
      "basketball": 2776,
      "cru": 2777,
      "loud": 2778,
      "stup": 2779,
      "lend": 2780,
      "level": 2781,
      "heat": 2782,
      "across": 2783,
      "mode": 2784,
      "model": 2785,
      "plastic": 2786,
      "ently": 2787,
      "bran": 2788,
      "math": 2789,
      "closed": 2790,
      "sons": 2791,
      "older": 2792,
      "headache": 2793,
      "sugar": 2794,
      "bargain": 2795,
      "seriously": 2796,
      "value": 2797,
      "north": 2798,
      "darling": 2799,
      "magazines": 2800,
      "japanese": 2801,
      "econom": 2802,
      "science": 2803,
      "director": 2804,
      "australia": 2805,
      "itude": 2806,
      "ale": 2807,
      "bly": 2808,
      "file": 2809,
      "ible": 2810,
      "page": 2811,
      "ror": 2812,
      "uh": 2813,
      "review": 2814,
      "bear": 2815,
      "forms": 2816,
      "mob": 2817,
      "mploy": 2818,
      "agre": 2819,
      "tooth": 2820,
      "sheet": 2821,
      "helps": 2822,
      "spir": 2823,
      "harder": 2824,
      "parts": 2825,
      "hardly": 2826,
      "tribut": 2827,
      "strange": 2828,
      "suitable": 2829,
      "changes": 2830,
      "vari": 2831,
      "sandw": 2832,
      "refund": 2833,
      "slip": 2834,
      "million": 2835,
      "electric": 2836,
      "materials": 2837,
      "budget": 2838,
      "crowded": 2839,
      "equip": 2840,
      "unemploy": 2841,
      "specific": 2842,
      "currency": 2843,
      "unemployment": 2844,
      "cities": 2845,
      "ga": 2846,
      "iel": 2847,
      "ped": 2848,
      "rare": 2849,
      "scared": 2850,
      "tend": 2851,
      "toast": 2852,
      "orig": 2853,
      "stam": 2854,
      "ley": 2855,
      "social": 2856,
      "oking": 2857,
      "fever": 2858,
      "feet": 2859,
      "points": 2860,
      "agency": 2861,
      "conference": 2862,
      "aft": 2863,
      "helped": 2864,
      "complic": 2865,
      "grat": 2866,
      "biggest": 2867,
      "avoid": 2868,
      "opening": 2869,
      "possib": 2870,
      "generally": 2871,
      "opportunities": 2872,
      "duty": 2873,
      "celebrate": 2874,
      "watched": 2875,
      "inspection": 2876,
      "involved": 2877,
      "stupid": 2878,
      "mobile": 2879,
      "bac": 2880,
      "dig": 2881,
      "em": 2882,
      "ev": 2883,
      "gers": 2884,
      "lam": 2885,
      "mall": 2886,
      "phi": 2887,
      "ran": 2888,
      "rup": 2889,
      "tit": 2890,
      "tes": 2891,
      "tree": 2892,
      "zz": 2893,
      "repair": 2894,
      "ises": 2895,
      "ens": 2896,
      "ared": 2897,
      "chur": 2898,
      "suf": 2899,
      "ourselves": 2900,
      "boat": 2901,
      "stomach": 2902,
      "background": 2903,
      "waiter": 2904,
      "mates": 2905,
      "brea": 2906,
      "produce": 2907,
      "beauty": 2908,
      "smaller": 2909,
      "effic": 2910,
      "strict": 2911,
      "packing": 2912,
      "mitted": 2913,
      "talked": 2914,
      "activities": 2915,
      "museum": 2916,
      "origin": 2917,
      "dden": 2918,
      "lind": 2919,
      "ugh": 2920,
      "ying": 2921,
      "itation": 2922,
      "meas": 2923,
      "orders": 2924,
      "dom": 2925,
      "code": 2926,
      "sudden": 2927,
      "shut": 2928,
      "yellow": 2929,
      "hire": 2930,
      "respect": 2931,
      "ilar": 2932,
      "commer": 2933,
      "ptions": 2934,
      "warrant": 2935,
      "solve": 2936,
      "supermarket": 2937,
      "similar": 2938,
      "damage": 2939,
      "organiz": 2940,
      "development": 2941,
      "extreme": 2942,
      "bonus": 2943,
      "dangerous": 2944,
      "emer": 2945,
      "fed": 2946,
      "ging": 2947,
      "hy": 2948,
      "ior": 2949,
      "map": 2950,
      "ners": 2951,
      "pian": 2952,
      "sep": 2953,
      "tery": 2954,
      "somebody": 2955,
      "iling": 2956,
      "sauce": 2957,
      "mbur": 2958,
      "achieve": 2959,
      "feels": 2960,
      "downtown": 2961,
      "numbers": 2962,
      "shot": 2963,
      "regard": 2964,
      "medical": 2965,
      "pressed": 2966,
      "italian": 2967,
      "flying": 2968,
      "turning": 2969,
      "economy": 2970,
      "registered": 2971,
      "central": 2972,
      "guarantee": 2973,
      "radio": 2974,
      "church": 2975,
      "ais": 2976,
      "cine": 2977,
      "cul": 2978,
      "gam": 2979,
      "gra": 2980,
      "kick": 2981,
      "sour": 2982,
      "van": 2983,
      "ined": 2984,
      "ordered": 2985,
      "stren": 2986,
      "wet": 2987,
      "limit": 2988,
      "roses": 2989,
      "fool": 2990,
      "aker": 2991,
      "commission": 2992,
      "cloth": 2993,
      "lived": 2994,
      "files": 2995,
      "german": 2996,
      "register": 2997,
      "cute": 2998,
      "younger": 2999,
      "vote": 3000,
      "voice": 3001,
      "promised": 3002,
      "directly": 3003,
      "score": 3004,
      "located": 3005,
      "character": 3006,
      "minimum": 3007,
      "challeng": 3008,
      "security": 3009,
      "complicated": 3010,
      "east": 3011,
      "glo": 3012,
      "sca": 3013,
      "silk": 3014,
      "tone": 3015,
      "ison": 3016,
      "encour": 3017,
      "wide": 3018,
      "idence": 3019,
      "ached": 3020,
      "polit": 3021,
      "brid": 3022,
      "ston": 3023,
      "monica": 3024,
      "carefully": 3025,
      "paris": 3026,
      "accounts": 3027,
      "hurts": 3028,
      "selling": 3029,
      "boarding": 3030,
      "balance": 3031,
      "mountains": 3032,
      "satisfied": 3033,
      "ko": 3034,
      "pi": 3035,
      "range": 3036,
      "scar": 3037,
      "tober": 3038,
      "orange": 3039,
      "leather": 3040,
      "bec": 3041,
      "alice": 3042,
      "roast": 3043,
      "rible": 3044,
      "abo": 3045,
      "plant": 3046,
      "prepar": 3047,
      "comb": 3048,
      "overseas": 3049,
      "assign": 3050,
      "dial": 3051,
      "lucy": 3052,
      "centre": 3053,
      "breath": 3054,
      "virus": 3055,
      "occas": 3056,
      "october": 3057,
      "horrible": 3058,
      "legal": 3059,
      "corporation": 3060,
      "variety": 3061,
      "bies": 3062,
      "dor": 3063,
      "die": 3064,
      "gust": 3065,
      "nal": 3066,
      "nur": 3067,
      "pes": 3068,
      "sad": 3069,
      "scr": 3070,
      "anc": 3071,
      "ato": 3072,
      "lift": 3073,
      "iden": 3074,
      "iring": 3075,
      "host": 3076,
      "congrat": 3077,
      "joe": 3078,
      "cheer": 3079,
      "prin": 3080,
      "studied": 3081,
      "laugh": 3082,
      "sky": 3083,
      "cycle": 3084,
      "larger": 3085,
      "univer": 3086,
      "terribly": 3087,
      "presentation": 3088,
      "daniel": 3089,
      "basic": 3090,
      "concerned": 3091,
      "employee": 3092,
      "awful": 3093,
      "appear": 3094,
      "registration": 3095,
      "sample": 3096,
      "exhibition": 3097,
      "canada": 3098,
      "aisle": 3099,
      "gn": 3100,
      "gri": 3101,
      "pac": 3102,
      "rus": 3103,
      "annu": 3104,
      "stat": 3105,
      "sele": 3106,
      "separ": 3107,
      "hael": 3108,
      "chi": 3109,
      "peace": 3110,
      "article": 3111,
      "resour": 3112,
      "amed": 3113,
      "wrap": 3114,
      "france": 3115,
      "tors": 3116,
      "torna": 3117,
      "classical": 3118,
      "broad": 3119,
      "americans": 3120,
      "expenses": 3121,
      "although": 3122,
      "chair": 3123,
      "suggestion": 3124,
      "elev": 3125,
      "calm": 3126,
      "block": 3127,
      "difficul": 3128,
      "tastes": 3129,
      "basically": 3130,
      "changing": 3131,
      "entertain": 3132,
      "potato": 3133,
      "candid": 3134,
      "quarter": 3135,
      "snack": 3136,
      "settled": 3137,
      "digital": 3138,
      "strength": 3139,
      "ban": 3140,
      "dressed": 3141,
      "hmm": 3142,
      "xic": 3143,
      "renew": 3144,
      "refri": 3145,
      "request": 3146,
      "anna": 3147,
      "atures": 3148,
      "mexic": 3149,
      "ordin": 3150,
      "leep": 3151,
      "arrest": 3152,
      "becoming": 3153,
      "keys": 3154,
      "asleep": 3155,
      "lip": 3156,
      "roy": 3157,
      "coke": 3158,
      "river": 3159,
      "tember": 3160,
      "fered": 3161,
      "exten": 3162,
      "demand": 3163,
      "provid": 3164,
      "indi": 3165,
      "agne": 3166,
      "mul": 3167,
      "gotten": 3168,
      "acting": 3169,
      "manu": 3170,
      "carpet": 3171,
      "putting": 3172,
      "estab": 3173,
      "blow": 3174,
      "parties": 3175,
      "survey": 3176,
      "trains": 3177,
      "attitude": 3178,
      "realize": 3179,
      "filled": 3180,
      "inviting": 3181,
      "exams": 3182,
      "grade": 3183,
      "accepted": 3184,
      "wallet": 3185,
      "shirts": 3186,
      "michael": 3187,
      "patient": 3188,
      "direction": 3189,
      "impression": 3190,
      "picnic": 3191,
      "september": 3192,
      "cinema": 3193,
      "elevator": 3194,
      "refriger": 3195,
      "cry": 3196,
      "fla": 3197,
      "gal": 3198,
      "hat": 3199,
      "twel": 3200,
      "ware": 3201,
      "income": 3202,
      "anci": 3203,
      "ons": 3204,
      "isy": 3205,
      "icles": 3206,
      "alco": 3207,
      "ceed": 3208,
      "notes": 3209,
      "trick": 3210,
      "pers": 3211,
      "perfu": 3212,
      "letters": 3213,
      "ques": 3214,
      "previous": 3215,
      "events": 3216,
      "choices": 3217,
      "distance": 3218,
      "shops": 3219,
      "bling": 3220,
      "positive": 3221,
      "highly": 3222,
      "julia": 3223,
      "bills": 3224,
      "papers": 3225,
      "styles": 3226,
      "frequ": 3227,
      "profit": 3228,
      "includes": 3229,
      "trees": 3230,
      "climate": 3231,
      "dressing": 3232,
      "holidays": 3233,
      "copies": 3234,
      "clearly": 3235,
      "records": 3236,
      "charged": 3237,
      "normal": 3238,
      "engineer": 3239,
      "transportation": 3240,
      "laptop": 3241,
      "agreed": 3242,
      "emergen": 3243,
      "refrigerator": 3244,
      "twelve": 3245,
      "alcoho": 3246,
      "bour": 3247,
      "dge": 3248,
      "fancy": 3249,
      "lack": 3250,
      "independ": 3251,
      "theater": 3252,
      "veh": 3253,
      "george": 3254,
      "moon": 3255,
      "shy": 3256,
      "indy": 3257,
      "ury": 3258,
      "boys": 3259,
      "fol": 3260,
      "ulous": 3261,
      "rail": 3262,
      "proud": 3263,
      "mony": 3264,
      "channel": 3265,
      "weren": 3266,
      "stuck": 3267,
      "england": 3268,
      "opened": 3269,
      "tons": 3270,
      "gging": 3271,
      "whenever": 3272,
      "personality": 3273,
      "install": 3274,
      "figures": 3275,
      "aware": 3276,
      "typical": 3277,
      "lady": 3278,
      "neighborhood": 3279,
      "graphy": 3280,
      "vacan": 3281,
      "culture": 3282,
      "hobbies": 3283,
      "labor": 3284,
      "qualified": 3285,
      "energy": 3286,
      "manufact": 3287,
      "aver": 3288,
      "cin": 3289,
      "cindy": 3290,
      "dat": 3291,
      "las": 3292,
      "swee": 3293,
      "tar": 3294,
      "zing": 3295,
      "stars": 3296,
      "lid": 3297,
      "loans": 3298,
      "anytime": 3299,
      "exper": 3300,
      "contribut": 3301,
      "cture": 3302,
      "redu": 3303,
      "offers": 3304,
      "themselves": 3305,
      "commo": 3306,
      "compe": 3307,
      "ames": 3308,
      "bucks": 3309,
      "stopped": 3310,
      "mistakes": 3311,
      "dump": 3312,
      "pale": 3313,
      "draft": 3314,
      "nue": 3315,
      "showing": 3316,
      "autum": 3317,
      "singing": 3318,
      "additional": 3319,
      "reception": 3320,
      "smooth": 3321,
      "restaurants": 3322,
      "passen": 3323,
      "tests": 3324,
      "related": 3325,
      "relaxing": 3326,
      "flower": 3327,
      "delay": 3328,
      "relig": 3329,
      "material": 3330,
      "skirt": 3331,
      "equipment": 3332,
      "linda": 3333,
      "commercial": 3334,
      "congratulations": 3335,
      "ancient": 3336,
      "autumn": 3337,
      "ai": 3338,
      "cd": 3339,
      "cket": 3340,
      "gro": 3341,
      "hous": 3342,
      "tch": 3343,
      "tles": 3344,
      "vill": 3345,
      "thin": 3346,
      "thro": 3347,
      "ism": 3348,
      "members": 3349,
      "helen": 3350,
      "aries": 3351,
      "andy": 3352,
      "entr": 3353,
      "goal": 3354,
      "soda": 3355,
      "alo": 3356,
      "wild": 3357,
      "areas": 3358,
      "losing": 3359,
      "access": 3360,
      "admin": 3361,
      "butter": 3362,
      "antic": 3363,
      "agent": 3364,
      "unit": 3365,
      "unless": 3366,
      "bru": 3367,
      "cies": 3368,
      "served": 3369,
      "disappoint": 3370,
      "players": 3371,
      "impos": 3372,
      "franc": 3373,
      "talent": 3374,
      "shake": 3375,
      "missing": 3376,
      "june": 3377,
      "apped": 3378,
      "sixty": 3379,
      "teams": 3380,
      "perfectly": 3381,
      "seller": 3382,
      "basis": 3383,
      "applying": 3384,
      "windows": 3385,
      "anni": 3386,
      "songs": 3387,
      "advertising": 3388,
      "connect": 3389,
      "types": 3390,
      "ladies": 3391,
      "slowly": 3392,
      "ships": 3393,
      "impressive": 3394,
      "messages": 3395,
      "journey": 3396,
      "responsibility": 3397,
      "sarah": 3398,
      "champagne": 3399,
      "annual": 3400,
      "ordinary": 3401,
      "entrance": 3402,
      "impossible": 3403,
      "jason": 3404,
      "tin": 3405,
      "tan": 3406,
      "ured": 3407,
      "init": 3408,
      "replace": 3409,
      "seve": 3410,
      "lee": 3411,
      "formed": 3412,
      "coll": 3413,
      "lob": 3414,
      "neither": 3415,
      "abc": 3416,
      "seemed": 3417,
      "aging": 3418,
      "offices": 3419,
      "spee": 3420,
      "spect": 3421,
      "glasses": 3422,
      "failed": 3423,
      "taught": 3424,
      "houses": 3425,
      "enjoying": 3426,
      "personally": 3427,
      "added": 3428,
      "meetings": 3429,
      "author": 3430,
      "spending": 3431,
      "tune": 3432,
      "relaxed": 3433,
      "fishing": 3434,
      "techno": 3435,
      "safety": 3436,
      "washington": 3437,
      "charges": 3438,
      "characters": 3439,
      "divorce": 3440,
      "sandwich": 3441,
      "rupt": 3442,
      "bite": 3443,
      "dent": 3444,
      "ears": 3445,
      "gress": 3446,
      "hou": 3447,
      "nast": 3448,
      "rise": 3449,
      "spl": 3450,
      "vour": 3451,
      "zes": 3452,
      "theat": 3453,
      "attract": 3454,
      "erk": 3455,
      "meter": 3456,
      "gee": 3457,
      "termin": 3458,
      "shine": 3459,
      "proof": 3460,
      "agon": 3461,
      "plat": 3462,
      "shelf": 3463,
      "compli": 3464,
      "chemis": 3465,
      "etc": 3466,
      "ideal": 3467,
      "cousin": 3468,
      "stops": 3469,
      "series": 3470,
      "checks": 3471,
      "plays": 3472,
      "trim": 3473,
      "visitor": 3474,
      "rule": 3475,
      "accountant": 3476,
      "brings": 3477,
      "reserved": 3478,
      "weekends": 3479,
      "oted": 3480,
      "traveler": 3481,
      "convenience": 3482,
      "investment": 3483,
      "degrees": 3484,
      "connection": 3485,
      "supplies": 3486,
      "requirements": 3487,
      "brief": 3488,
      "declare": 3489,
      "automat": 3490,
      "advantage": 3491,
      "pollution": 3492,
      "branch": 3493,
      "suddenly": 3494,
      "warranty": 3495,
      "above": 3496,
      "occasion": 3497,
      "emergency": 3498,
      "average": 3499,
      "annivers": 3500,
      "bun": 3501,
      "ii": 3502,
      "joking": 3503,
      "kno": 3504,
      "zoo": 3505,
      "incred": 3506,
      "remain": 3507,
      "anno": 3508,
      "lla": 3509,
      "straw": 3510,
      "legs": 3511,
      "forgive": 3512,
      "altogether": 3513,
      "lily": 3514,
      "ama": 3515,
      "tian": 3516,
      "cere": 3517,
      "units": 3518,
      "quant": 3519,
      "ends": 3520,
      "chess": 3521,
      "reduce": 3522,
      "grown": 3523,
      "stolen": 3524,
      "unders": 3525,
      "fries": 3526,
      "literature": 3527,
      "drunk": 3528,
      "lazy": 3529,
      "jeans": 3530,
      "invitation": 3531,
      "crack": 3532,
      "dealing": 3533,
      "sleeping": 3534,
      "falling": 3535,
      "supervis": 3536,
      "gifts": 3537,
      "furnished": 3538,
      "apples": 3539,
      "honor": 3540,
      "memory": 3541,
      "cigarettes": 3542,
      "pcc": 3543,
      "measure": 3544,
      "piano": 3545,
      "anniversary": 3546,
      "bie": 3547,
      "burn": 3548,
      "fan": 3549,
      "fry": 3550,
      "ker": 3551,
      "mal": 3552,
      "ots": 3553,
      "pork": 3554,
      "sis": 3555,
      "tag": 3556,
      "thre": 3557,
      "thom": 3558,
      "issu": 3559,
      "sets": 3560,
      "hambur": 3561,
      "bean": 3562,
      "golf": 3563,
      "noisy": 3564,
      "lock": 3565,
      "loss": 3566,
      "pep": 3567,
      "worst": 3568,
      "convers": 3569,
      "worker": 3570,
      "affect": 3571,
      "focus": 3572,
      "joke": 3573,
      "brow": 3574,
      "stone": 3575,
      "court": 3576,
      "fail": 3577,
      "favour": 3578,
      "showed": 3579,
      "meaning": 3580,
      "tape": 3581,
      "scholar": 3582,
      "badly": 3583,
      "rude": 3584,
      "earn": 3585,
      "singer": 3586,
      "seconds": 3587,
      "interviewer": 3588,
      "terrific": 3589,
      "raining": 3590,
      "considering": 3591,
      "forgotten": 3592,
      "particip": 3593,
      "cakes": 3594,
      "continu": 3595,
      "richard": 3596,
      "vince": 3597,
      "sightseeing": 3598,
      "property": 3599,
      "effects": 3600,
      "xxxx": 3601,
      "hobby": 3602,
      "bowl": 3603,
      "sharp": 3604,
      "storm": 3605,
      "retirement": 3606,
      "extremely": 3607,
      "individ": 3608,
      "perfume": 3609,
      "throat": 3610,
      "disappointed": 3611,
      "francis": 3612,
      "ao": 3613,
      "gun": 3614,
      "lay": 3615,
      "lish": 3616,
      "rick": 3617,
      "sally": 3618,
      "vy": 3619,
      "zhou": 3620,
      "anal": 3621,
      "rober": 3622,
      "nove": 3623,
      "ably": 3624,
      "sured": 3625,
      "depressed": 3626,
      "washed": 3627,
      "propos": 3628,
      "ager": 3629,
      "union": 3630,
      "gotta": 3631,
      "sites": 3632,
      "loved": 3633,
      "friendship": 3634,
      "handsome": 3635,
      "surv": 3636,
      "skill": 3637,
      "parent": 3638,
      "addy": 3639,
      "strate": 3640,
      "teachers": 3641,
      "sunny": 3642,
      "senior": 3643,
      "warning": 3644,
      "fifth": 3645,
      "fairly": 3646,
      "opera": 3647,
      "walls": 3648,
      "practical": 3649,
      "announ": 3650,
      "obvious": 3651,
      "casual": 3652,
      "enterpr": 3653,
      "gentle": 3654,
      "leader": 3655,
      "catalo": 3656,
      "appeti": 3657,
      "garage": 3658,
      "electron": 3659,
      "valent": 3660,
      "route": 3661,
      "olympic": 3662,
      "cocktail": 3663,
      "cooperation": 3664,
      "original": 3665,
      "chips": 3666,
      "tornado": 3667,
      "flavor": 3668,
      "bunch": 3669,
      "bicy": 3670,
      "cro": 3671,
      "dir": 3672,
      "dating": 3673,
      "daddy": 3674,
      "gor": 3675,
      "gall": 3676,
      "jacket": 3677,
      "james": 3678,
      "ler": 3679,
      "nap": 3680,
      "nie": 3681,
      "nical": 3682,
      "nia": 3683,
      "ood": 3684,
      "options": 3685,
      "pred": 3686,
      "tay": 3687,
      "ums": 3688,
      "regre": 3689,
      "itut": 3690,
      "ingred": 3691,
      "seaf": 3692,
      "force": 3693,
      "sole": 3694,
      "wire": 3695,
      "thinks": 3696,
      "plate": 3697,
      "articles": 3698,
      "grab": 3699,
      "spell": 3700,
      "minor": 3701,
      "rences": 3702,
      "blouse": 3703,
      "studies": 3704,
      "mato": 3705,
      "pump": 3706,
      "august": 3707,
      "fourth": 3708,
      "suitcase": 3709,
      "subs": 3710,
      "eleven": 3711,
      "cali": 3712,
      "reservations": 3713,
      "trading": 3714,
      "sweat": 3715,
      "chris": 3716,
      "spoken": 3717,
      "scheduled": 3718,
      "confident": 3719,
      "damaged": 3720,
      "technical": 3721,
      "cats": 3722,
      "cameras": 3723,
      "advertisement": 3724,
      "deserve": 3725,
      "travelling": 3726,
      "stamps": 3727,
      "bridge": 3728,
      "kore": 3729,
      "vehicle": 3730,
      "adminis": 3731,
      "nasty": 3732,
      "split": 3733,
      "ceremony": 3734,
      "thomas": 3735,
      "taylor": 3736,
      "ingredient": 3737,
      "seafood": 3738,
      "aunt": 3739,
      "bs": 3740,
      "nature": 3741,
      "uri": 3742,
      "vic": 3743,
      "repe": 3744,
      "anne": 3745,
      "onto": 3746,
      "eral": 3747,
      "meth": 3748,
      "stic": 3749,
      "entire": 3750,
      "liu": 3751,
      "cot": 3752,
      "coast": 3753,
      "loose": 3754,
      "nels": 3755,
      "suite": 3756,
      "iron": 3757,
      "tim": 3758,
      "tip": 3759,
      "dece": 3760,
      "thern": 3761,
      "proced": 3762,
      "chest": 3763,
      "clerk": 3764,
      "chances": 3765,
      "disco": 3766,
      "download": 3767,
      "finance": 3768,
      "intend": 3769,
      "shame": 3770,
      "dining": 3771,
      "addition": 3772,
      "maintain": 3773,
      "grades": 3774,
      "fitness": 3775,
      "presents": 3776,
      "symp": 3777,
      "tourist": 3778,
      "returns": 3779,
      "purpose": 3780,
      "bottles": 3781,
      "explo": 3782,
      "solution": 3783,
      "honestly": 3784,
      "insist": 3785,
      "capital": 3786,
      "porter": 3787,
      "supply": 3788,
      "communic": 3789,
      "communication": 3790,
      "corporate": 3791,
      "normally": 3792,
      "risk": 3793,
      "officer": 3794,
      "neckl": 3795,
      "olympics": 3796,
      "protect": 3797,
      "critic": 3798,
      "efficient": 3799,
      "princi": 3800,
      "alcohol": 3801,
      "housing": 3802,
      "speech": 3803,
      "quantity": 3804,
      "survive": 3805,
      "califor": 3806,
      "ingredients": 3807,
      "award": 3808,
      "dates": 3809,
      "ek": 3810,
      "flies": 3811,
      "hunt": 3812,
      "jones": 3813,
      "lat": 3814,
      "mart": 3815,
      "none": 3816,
      "oting": 3817,
      "punch": 3818,
      "vit": 3819,
      "vard": 3820,
      "vided": 3821,
      "zina": 3822,
      "zhang": 3823,
      "towel": 3824,
      "tomato": 3825,
      "meant": 3826,
      "stir": 3827,
      "sess": 3828,
      "hest": 3829,
      "below": 3830,
      "goals": 3831,
      "ald": 3832,
      "eding": 3833,
      "rome": 3834,
      "admit": 3835,
      "ods": 3836,
      "fective": 3837,
      "boston": 3838,
      "harvard": 3839,
      "owners": 3840,
      "typing": 3841,
      "brain": 3842,
      "hadn": 3843,
      "sities": 3844,
      "display": 3845,
      "names": 3846,
      "shoe": 3847,
      "psy": 3848,
      "stere": 3849,
      "happening": 3850,
      "venir": 3851,
      "fired": 3852,
      "addict": 3853,
      "unte": 3854,
      "effort": 3855,
      "salt": 3856,
      "audi": 3857,
      "empty": 3858,
      "invo": 3859,
      "souvenir": 3860,
      "mainly": 3861,
      "cleaned": 3862,
      "reasons": 3863,
      "doors": 3864,
      "following": 3865,
      "lawy": 3866,
      "graduation": 3867,
      "fashionable": 3868,
      "micro": 3869,
      "queen": 3870,
      "particularly": 3871,
      "newspapers": 3872,
      "benefit": 3873,
      "employment": 3874,
      "neighbors": 3875,
      "cultural": 3876,
      "routine": 3877,
      "motorcycle": 3878,
      "consult": 3879,
      "competition": 3880,
      "volunte": 3881,
      "experienced": 3882,
      "umbre": 3883,
      "physical": 3884,
      "bachel": 3885,
      "gambling": 3886,
      "challenging": 3887,
      "scale": 3888,
      "universities": 3889,
      "packed": 3890,
      "russi": 3891,
      "extension": 3892,
      "expert": 3893,
      "technology": 3894,
      "baker": 3895,
      "dare": 3896,
      "eth": 3897,
      "fro": 3898,
      "fab": 3899,
      "ike": 3900,
      "junk": 3901,
      "karen": 3902,
      "mir": 3903,
      "ost": 3904,
      "pig": 3905,
      "sil": 3906,
      "sich": 3907,
      "ww": 3908,
      "wing": 3909,
      "ya": 3910,
      "rep": 3911,
      "reput": 3912,
      "anced": 3913,
      "stage": 3914,
      "seed": 3915,
      "height": 3916,
      "arian": 3917,
      "belt": 3918,
      "icing": 3919,
      "cooked": 3920,
      "neare": 3921,
      "adjust": 3922,
      "teria": 3923,
      "ours": 3924,
      "features": 3925,
      "plants": 3926,
      "hig": 3927,
      "cough": 3928,
      "harm": 3929,
      "markets": 3930,
      "betty": 3931,
      "channels": 3932,
      "aven": 3933,
      "avenue": 3934,
      "maxi": 3935,
      "interests": 3936,
      "blame": 3937,
      "visited": 3938,
      "pardon": 3939,
      "merry": 3940,
      "tains": 3941,
      "signs": 3942,
      "runs": 3943,
      "offering": 3944,
      "hotels": 3945,
      "network": 3946,
      "lisa": 3947,
      "paperwork": 3948,
      "topic": 3949,
      "completed": 3950,
      "hundreds": 3951,
      "spots": 3952,
      "grandmother": 3953,
      "bio": 3954,
      "lence": 3955,
      "customs": 3956,
      "neighbour": 3957,
      "regularly": 3958,
      "vio": 3959,
      "millions": 3960,
      "statement": 3961,
      "conditioning": 3962,
      "families": 3963,
      "scenery": 3964,
      "responsibilities": 3965,
      "mixed": 3966,
      "flexi": 3967,
      "limited": 3968,
      "potatoes": 3969,
      "incredible": 3970,
      "repeat": 3971,
      "necklace": 3972,
      "california": 3973,
      "psycho": 3974,
      "bachelor": 3975,
      "sichuan": 3976,
      "ado": 3977,
      "amy": 3978,
      "bul": 3979,
      "cate": 3980,
      "dust": 3981,
      "fred": 3982,
      "kate": 3983,
      "lun": 3984,
      "mc": 3985,
      "mort": 3986,
      "mers": 3987,
      "nan": 3988,
      "nick": 3989,
      "oven": 3990,
      "option": 3991,
      "pills": 3992,
      "ray": 3993,
      "ram": 3994,
      "wro": 3995,
      "wers": 3996,
      "inse": 3997,
      "ana": 3998,
      "atm": 3999,
      "toi": 4000,
      "mechan": 4001,
      "heel": 4002,
      "heaven": 4003,
      "argu": 4004,
      "offered": 4005,
      "dome": 4006,
      "fortune": 4007,
      "wil": 4008,
      "roof": 4009,
      "rocks": 4010,
      "los": 4011,
      "acade": 4012,
      "pets": 4013,
      "akes": 4014,
      "shor": 4015,
      "goodness": 4016,
      "dete": 4017,
      "poten": 4018,
      "rights": 4019,
      "unusual": 4020,
      "arts": 4021,
      "conside": 4022,
      "afric": 4023,
      "bored": 4024,
      "ils": 4025,
      "rage": 4026,
      "printer": 4027,
      "partner": 4028,
      "forecast": 4029,
      "histor": 4030,
      "dull": 4031,
      "frustr": 4032,
      "laid": 4033,
      "hopefully": 4034,
      "handed": 4035,
      "clever": 4036,
      "speaks": 4037,
      "effective": 4038,
      "sending": 4039,
      "bedrooms": 4040,
      "teaching": 4041,
      "warming": 4042,
      "holding": 4043,
      "fitting": 4044,
      "relatives": 4045,
      "blocks": 4046,
      "transaction": 4047,
      "faction": 4048,
      "reports": 4049,
      "chicago": 4050,
      "consideration": 4051,
      "concern": 4052,
      "arrang": 4053,
      "laws": 4054,
      "fields": 4055,
      "transferred": 4056,
      "occup": 4057,
      "designed": 4058,
      "confused": 4059,
      "confidence": 4060,
      "mentioned": 4061,
      "starving": 4062,
      "satisfaction": 4063,
      "shipping": 4064,
      "properly": 4065,
      "community": 4066,
      "location": 4067,
      "advertisements": 4068,
      "walked": 4069,
      "advantages": 4070,
      "habits": 4071,
      "cigarette": 4072,
      "applied": 4073,
      "appliances": 4074,
      "embarr": 4075,
      "valuable": 4076,
      "title": 4077,
      "nurse": 4078,
      "resources": 4079,
      "candidate": 4080,
      "commod": 4081,
      "conversation": 4082,
      "december": 4083,
      "lawyer": 4084,
      "wrote": 4085,
      "considered": 4086,
      "awe": 4087,
      "cow": 4088,
      "dave": 4089,
      "eli": 4090,
      "evid": 4091,
      "fond": 4092,
      "ib": 4093,
      "kar": 4094,
      "pink": 4095,
      "pants": 4096,
      "rap": 4097,
      "voted": 4098,
      "informed": 4099,
      "rely": 4100,
      "remit": 4101,
      "stations": 4102,
      "sec": 4103,
      "sex": 4104,
      "bel": 4105,
      "bey": 4106,
      "became": 4107,
      "keen": 4108,
      "kevin": 4109,
      "sore": 4110,
      "liqu": 4111,
      "rot": 4112,
      "role": 4113,
      "coin": 4114,
      "cancell": 4115,
      "shri": 4116,
      "debit": 4117,
      "decent": 4118,
      "prob": 4119,
      "progress": 4120,
      "permit": 4121,
      "pls": 4122,
      "const": 4123,
      "hiking": 4124,
      "henry": 4125,
      "romantic": 4126,
      "compens": 4127,
      "event": 4128,
      "coupon": 4129,
      "bride": 4130,
      "marg": 4131,
      "lessons": 4132,
      "paign": 4133,
      "smile": 4134,
      "planet": 4135,
      "charming": 4136,
      "description": 4137,
      "steal": 4138,
      "worrying": 4139,
      "attach": 4140,
      "evenings": 4141,
      "collection": 4142,
      "banking": 4143,
      "apartments": 4144,
      "qualific": 4145,
      "cris": 4146,
      "crime": 4147,
      "foreigners": 4148,
      "expand": 4149,
      "campaign": 4150,
      "tification": 4151,
      "required": 4152,
      "burger": 4153,
      "employer": 4154,
      "palace": 4155,
      "switch": 4156,
      "divorced": 4157,
      "battery": 4158,
      "global": 4159,
      "selection": 4160,
      "data": 4161,
      "village": 4162,
      "strawber": 4163,
      "supervisor": 4164,
      "individual": 4165,
      "proposal": 4166,
      "bicycle": 4167,
      "principle": 4168,
      "umbrella": 4169,
      "reputation": 4170,
      "nearest": 4171,
      "maximum": 4172,
      "potential": 4173,
      "qualifications": 4174,
      "bage": 4175,
      "bang": 4176,
      "fra": 4177,
      "gorge": 4178,
      "hum": 4179,
      "iam": 4180,
      "iba": 4181,
      "mut": 4182,
      "nes": 4183,
      "rates": 4184,
      "shad": 4185,
      "slight": 4186,
      "tz": 4187,
      "thus": 4188,
      "reco": 4189,
      "iss": 4190,
      "island": 4191,
      "liers": 4192,
      "costu": 4193,
      "cancer": 4194,
      "anybody": 4195,
      "anta": 4196,
      "shan": 4197,
      "shif": 4198,
      "def": 4199,
      "agend": 4200,
      "atest": 4201,
      "hired": 4202,
      "affair": 4203,
      "forest": 4204,
      "romance": 4205,
      "ents": 4206,
      "compar": 4207,
      "item": 4208,
      "prevent": 4209,
      "greatest": 4210,
      "coun": 4211,
      "roommate": 4212,
      "civ": 4213,
      "pays": 4214,
      "downstairs": 4215,
      "rug": 4216,
      "posite": 4217,
      "july": 4218,
      "sunshine": 4219,
      "johnson": 4220,
      "azz": 4221,
      "haircut": 4222,
      "rings": 4223,
      "vacu": 4224,
      "acceptable": 4225,
      "result": 4226,
      "operation": 4227,
      "purse": 4228,
      "falls": 4229,
      "opposite": 4230,
      "grandma": 4231,
      "thousands": 4232,
      "requires": 4233,
      "applic": 4234,
      "policies": 4235,
      "lincol": 4236,
      "candy": 4237,
      "groups": 4238,
      "funds": 4239,
      "zero": 4240,
      "robber": 4241,
      "janet": 4242,
      "journal": 4243,
      "cockro": 4244,
      "skiing": 4245,
      "paintings": 4246,
      "cafeteria": 4247,
      "encourage": 4248,
      "entertainment": 4249,
      "mexico": 4250,
      "lipstick": 4251,
      "establish": 4252,
      "manufacture": 4253,
      "grocer": 4254,
      "compliment": 4255,
      "dirty": 4256,
      "invoice": 4257,
      "silver": 4258,
      "highest": 4259,
      "toilet": 4260,
      "domestic": 4261,
      "evidence": 4262,
      "shrimp": 4263,
      "agenda": 4264,
      "lincoln": 4265,
      "aid": 4266,
      "bound": 4267,
      "bars": 4268,
      "dick": 4269,
      "dated": 4270,
      "juni": 4271,
      "mars": 4272,
      "nation": 4273,
      "oak": 4274,
      "pages": 4275,
      "tab": 4276,
      "yard": 4277,
      "zone": 4278,
      "thri": 4279,
      "thai": 4280,
      "represent": 4281,
      "erry": 4282,
      "stain": 4283,
      "select": 4284,
      "lemon": 4285,
      "haust": 4286,
      "weir": 4287,
      "weigh": 4288,
      "arms": 4289,
      "belong": 4290,
      "beans": 4291,
      "gos": 4292,
      "utilities": 4293,
      "cope": 4294,
      "nood": 4295,
      "pest": 4296,
      "william": 4297,
      "exe": 4298,
      "exhaust": 4299,
      "hop": 4300,
      "cons": 4301,
      "concentr": 4302,
      "jogging": 4303,
      "igning": 4304,
      "cheques": 4305,
      "spac": 4306,
      "hero": 4307,
      "tenance": 4308,
      "forever": 4309,
      "thoughtful": 4310,
      "personnel": 4311,
      "airmail": 4312,
      "function": 4313,
      "signed": 4314,
      "attack": 4315,
      "farm": 4316,
      "lord": 4317,
      "tongue": 4318,
      "breaks": 4319,
      "sence": 4320,
      "barbie": 4321,
      "streets": 4322,
      "maintenance": 4323,
      "passion": 4324,
      "prize": 4325,
      "feelings": 4326,
      "engaged": 4327,
      "marks": 4328,
      "correctly": 4329,
      "organic": 4330,
      "killing": 4331,
      "killed": 4332,
      "teeth": 4333,
      "approach": 4334,
      "deadline": 4335,
      "climbing": 4336,
      "strike": 4337,
      "economic": 4338,
      "alex": 4339,
      "possibly": 4340,
      "breathe": 4341,
      "pipe": 4342,
      "laughing": 4343,
      "separate": 4344,
      "strengths": 4345,
      "provides": 4346,
      "brush": 4347,
      "theatre": 4348,
      "chemistry": 4349,
      "regret": 4350,
      "gorgeous": 4351,
      "junior": 4352,
      "cit": 4353,
      "cles": 4354,
      "ccer": 4355,
      "fy": 4356,
      "gap": 4357,
      "ired": 4358,
      "ians": 4359,
      "iency": 4360,
      "kyo": 4361,
      "link": 4362,
      "nancy": 4363,
      "pam": 4364,
      "race": 4365,
      "wis": 4366,
      "zzy": 4367,
      "inch": 4368,
      "release": 4369,
      "reached": 4370,
      "itself": 4371,
      "wealth": 4372,
      "ena": 4373,
      "forbid": 4374,
      "soccer": 4375,
      "alt": 4376,
      "lder": 4377,
      "verted": 4378,
      "ripe": 4379,
      "outstanding": 4380,
      "likely": 4381,
      "moist": 4382,
      "donald": 4383,
      "death": 4384,
      "mpoo": 4385,
      "pocket": 4386,
      "booth": 4387,
      "resses": 4388,
      "compare": 4389,
      "chef": 4390,
      "commit": 4391,
      "cling": 4392,
      "click": 4393,
      "brick": 4394,
      "grass": 4395,
      "mangoes": 4396,
      "chop": 4397,
      "closer": 4398,
      "caused": 4399,
      "path": 4400,
      "hometown": 4401,
      "shooting": 4402,
      "corn": 4403,
      "household": 4404,
      "blind": 4405,
      "shampoo": 4406,
      "imate": 4407,
      "airline": 4408,
      "setting": 4409,
      "breast": 4410,
      "birds": 4411,
      "stretch": 4412,
      "barbec": 4413,
      "eleg": 4414,
      "exercising": 4415,
      "transl": 4416,
      "facial": 4417,
      "massage": 4418,
      "considerate": 4419,
      "joining": 4420,
      "awfully": 4421,
      "photograph": 4422,
      "webtrack": 4423,
      "vegetarian": 4424,
      "promoted": 4425,
      "horror": 4426,
      "discussion": 4427,
      "growth": 4428,
      "growing": 4429,
      "rolls": 4430,
      "reliable": 4431,
      "dutch": 4432,
      "smells": 4433,
      "picked": 4434,
      "subjects": 4435,
      "nutr": 4436,
      "membership": 4437,
      "finger": 4438,
      "society": 4439,
      "britain": 4440,
      "british": 4441,
      "electricity": 4442,
      "possibility": 4443,
      "difficulties": 4444,
      "folk": 4445,
      "railway": 4446,
      "visitors": 4447,
      "appetizer": 4448,
      "administration": 4449,
      "stereo": 4450,
      "volunteer": 4451,
      "flexible": 4452,
      "mortgage": 4453,
      "cockroaches": 4454,
      "noodles": 4455,
      "barbecue": 4456,
      "webtracker": 4457,
      "jess": 4458,
      "kn": 4459,
      "mig": 4460,
      "mile": 4461,
      "nail": 4462,
      "py": 4463,
      "pil": 4464,
      "pitch": 4465,
      "rac": 4466,
      "slot": 4467,
      "santa": 4468,
      "ugs": 4469,
      "via": 4470,
      "wars": 4471,
      "wave": 4472,
      "ining": 4473,
      "influ": 4474,
      "toes": 4475,
      "tories": 4476,
      "towards": 4477,
      "itive": 4478,
      "memo": 4479,
      "steve": 4480,
      "bend": 4481,
      "ences": 4482,
      "whom": 4483,
      "alarm": 4484,
      "altern": 4485,
      "robe": 4486,
      "novel": 4487,
      "iding": 4488,
      "rier": 4489,
      "absent": 4490,
      "adena": 4491,
      "superi": 4492,
      "iff": 4493,
      "tem": 4494,
      "feed": 4495,
      "trous": 4496,
      "hole": 4497,
      "prove": 4498,
      "upon": 4499,
      "upstairs": 4500,
      "contr": 4501,
      "condu": 4502,
      "contest": 4503,
      "workshop": 4504,
      "shoulder": 4505,
      "akers": 4506,
      "tells": 4507,
      "afterwards": 4508,
      "whose": 4509,
      "lasts": 4510,
      "faith": 4511,
      "penc": 4512,
      "male": 4513,
      "lux": 4514,
      "frag": 4515,
      "stands": 4516,
      "classmates": 4517,
      "eaten": 4518,
      "heading": 4519,
      "tables": 4520,
      "regulations": 4521,
      "judge": 4522,
      "managed": 4523,
      "picking": 4524,
      "began": 4525,
      "humor": 4526,
      "roads": 4527,
      "relations": 4528,
      "recommendation": 4529,
      "tradition": 4530,
      "atively": 4531,
      "wheel": 4532,
      "operate": 4533,
      "flash": 4534,
      "length": 4535,
      "projects": 4536,
      "promote": 4537,
      "horse": 4538,
      "developing": 4539,
      "slim": 4540,
      "clubs": 4541,
      "truck": 4542,
      "balcon": 4543,
      "honda": 4544,
      "writer": 4545,
      "venture": 4546,
      "destroy": 4547,
      "skirts": 4548,
      "decorating": 4549,
      "braz": 4550,
      "models": 4551,
      "suffer": 4552,
      "breathing": 4553,
      "preparing": 4554,
      "crying": 4555,
      "frequently": 4556,
      "seventy": 4557,
      "scholarship": 4558,
      "martin": 4559,
      "vitam": 4560,
      "addicted": 4561,
      "beyond": 4562,
      "probation": 4563,
      "compensation": 4564,
      "recogn": 4565,
      "trousers": 4566,
      "crush": 4567,
      "dv": 4568,
      "equi": 4569,
      "fans": 4570,
      "ges": 4571,
      "ged": 4572,
      "lone": 4573,
      "mild": 4574,
      "oce": 4575,
      "rd": 4576,
      "sl": 4577,
      "sne": 4578,
      "sac": 4579,
      "vase": 4580,
      "vity": 4581,
      "thy": 4582,
      "reci": 4583,
      "reward": 4584,
      "lli": 4585,
      "llen": 4586,
      "stan": 4587,
      "havi": 4588,
      "anda": 4589,
      "behavi": 4590,
      "ening": 4591,
      "envy": 4592,
      "whis": 4593,
      "ashed": 4594,
      "asian": 4595,
      "alu": 4596,
      "alty": 4597,
      "alous": 4598,
      "lowest": 4599,
      "neg": 4600,
      "admi": 4601,
      "irin": 4602,
      "tires": 4603,
      "ify": 4604,
      "aked": 4605,
      "tex": 4606,
      "shout": 4607,
      "cereal": 4608,
      "usd": 4609,
      "indian": 4610,
      "ups": 4611,
      "unbeli": 4612,
      "apparent": 4613,
      "ending": 4614,
      "ille": 4615,
      "premi": 4616,
      "grew": 4617,
      "bush": 4618,
      "ishing": 4619,
      "guard": 4620,
      "grate": 4621,
      "march": 4622,
      "chops": 4623,
      "stocks": 4624,
      "diving": 4625,
      "duck": 4626,
      "drug": 4627,
      "istic": 4628,
      "tailed": 4629,
      "phy": 4630,
      "trips": 4631,
      "handling": 4632,
      "matt": 4633,
      "drives": 4634,
      "hearing": 4635,
      "skating": 4636,
      "trainer": 4637,
      "banks": 4638,
      "iction": 4639,
      "tony": 4640,
      "bird": 4641,
      "smoker": 4642,
      "qualities": 4643,
      "examination": 4644,
      "foundation": 4645,
      "election": 4646,
      "rains": 4647,
      "tasty": 4648,
      "listed": 4649,
      "petite": 4650,
      "twin": 4651,
      "catching": 4652,
      "institut": 4653,
      "dropped": 4654,
      "steps": 4655,
      "fashioned": 4656,
      "leading": 4657,
      "seldom": 4658,
      "investig": 4659,
      "connected": 4660,
      "satisfactory": 4661,
      "carrying": 4662,
      "employed": 4663,
      "scient": 4664,
      "certificates": 4665,
      "stressful": 4666,
      "yoga": 4667,
      "official": 4668,
      "earthqu": 4669,
      "competitive": 4670,
      "instructions": 4671,
      "waltz": 4672,
      "colour": 4673,
      "traveller": 4674,
      "economics": 4675,
      "spirit": 4676,
      "emily": 4677,
      "passengers": 4678,
      "platform": 4679,
      "bungee": 4680,
      "annoying": 4681,
      "issues": 4682,
      "pepper": 4683,
      "robert": 4684,
      "obviously": 4685,
      "valentine": 4686,
      "insect": 4687,
      "awesome": 4688,
      "counse": 4689,
      "weird": 4690,
      "admire": 4691,
      "unbeliev": 4692,
      "dney": 4693,
      "ease": 4694,
      "eper": 4695,
      "equal": 4696,
      "gross": 4697,
      "jet": 4698,
      "lton": 4699,
      "mur": 4700,
      "mil": 4701,
      "ox": 4702,
      "pad": 4703,
      "pure": 4704,
      "ron": 4705,
      "rating": 4706,
      "tack": 4707,
      "intell": 4708,
      "inconvenience": 4709,
      "rebec": 4710,
      "itar": 4711,
      "ites": 4712,
      "ories": 4713,
      "arily": 4714,
      "beside": 4715,
      "enge": 4716,
      "enthus": 4717,
      "associ": 4718,
      "coach": 4719,
      "advis": 4720,
      "peel": 4721,
      "fection": 4722,
      "detailed": 4723,
      "propose": 4724,
      "perm": 4725,
      "plates": 4726,
      "unhappy": 4727,
      "unfair": 4728,
      "confir": 4729,
      "convin": 4730,
      "letting": 4731,
      "tools": 4732,
      "ulation": 4733,
      "elvin": 4734,
      "bump": 4735,
      "overweight": 4736,
      "guang": 4737,
      "grant": 4738,
      "marvel": 4739,
      "stove": 4740,
      "stood": 4741,
      "causing": 4742,
      "calend": 4743,
      "clothing": 4744,
      "asks": 4745,
      "waitress": 4746,
      "phones": 4747,
      "bookstore": 4748,
      "parcel": 4749,
      "planned": 4750,
      "airlines": 4751,
      "surface": 4752,
      "century": 4753,
      "breaking": 4754,
      "bringing": 4755,
      "jealous": 4756,
      "thirsty": 4757,
      "thirteen": 4758,
      "departure": 4759,
      "departments": 4760,
      "lished": 4761,
      "angeles": 4762,
      "athlet": 4763,
      "izing": 4764,
      "sydney": 4765,
      "dancer": 4766,
      "prior": 4767,
      "complex": 4768,
      "voting": 4769,
      "arriving": 4770,
      "joined": 4771,
      "fallen": 4772,
      "sofa": 4773,
      "camping": 4774,
      "succeed": 4775,
      "midnight": 4776,
      "designs": 4777,
      "currently": 4778,
      "treatment": 4779,
      "hanging": 4780,
      "jimmy": 4781,
      "baseball": 4782,
      "ridic": 4783,
      "exception": 4784,
      "developed": 4785,
      "garbage": 4786,
      "collecting": 4787,
      "printed": 4788,
      "brilli": 4789,
      "scene": 4790,
      "challenge": 4791,
      "sara": 4792,
      "negotiate": 4793,
      "sheets": 4794,
      "lamb": 4795,
      "multi": 4796,
      "independent": 4797,
      "dumpling": 4798,
      "initial": 4799,
      "lobby": 4800,
      "crackers": 4801,
      "electronic": 4802,
      "procedure": 4803,
      "souvenirs": 4804,
      "academic": 4805,
      "detective": 4806,
      "gossi": 4807,
      "exhausted": 4808,
      "forbidden": 4809,
      "moisturi": 4810,
      "elegant": 4811,
      "superior": 4812,
      "balcony": 4813,
      "lonely": 4814,
      "grateful": 4815,
      "unbelievable": 4816,
      "rebecca": 4817,
      "enthusi": 4818,
      "calendar": 4819,
      "brilliant": 4820,
      "fas": 4821,
      "fright": 4822,
      "gather": 4823,
      "kin": 4824,
      "pour": 4825,
      "pun": 4826,
      "uk": 4827,
      "uary": 4828,
      "wu": 4829,
      "xy": 4830,
      "zed": 4831,
      "thick": 4832,
      "reve": 4833,
      "refer": 4834,
      "refresh": 4835,
      "recover": 4836,
      "atmo": 4837,
      "tokyo": 4838,
      "mel": 4839,
      "ory": 4840,
      "hesit": 4841,
      "ened": 4842,
      "forts": 4843,
      "solid": 4844,
      "assure": 4845,
      "alle": 4846,
      "aller": 4847,
      "cher": 4848,
      "colu": 4849,
      "geo": 4850,
      "logo": 4851,
      "lored": 4852,
      "accord": 4853,
      "myster": 4854,
      "outfit": 4855,
      "amond": 4856,
      "ambul": 4857,
      "peak": 4858,
      "fet": 4859,
      "fear": 4860,
      "ferences": 4861,
      "deb": 4862,
      "demon": 4863,
      "plumb": 4864,
      "plug": 4865,
      "hier": 4866,
      "appetite": 4867,
      "sphere": 4868,
      "committed": 4869,
      "amen": 4870,
      "bull": 4871,
      "harry": 4872,
      "mba": 4873,
      "sizes": 4874,
      "chose": 4875,
      "minum": 4876,
      "cartons": 4877,
      "dip": 4878,
      "dizzy": 4879,
      "diamond": 4880,
      "waist": 4881,
      "dragon": 4882,
      "named": 4883,
      "waited": 4884,
      "minded": 4885,
      "fewer": 4886,
      "shown": 4887,
      "fiction": 4888,
      "talks": 4889,
      "llowed": 4890,
      "charles": 4891,
      "image": 4892,
      "create": 4893,
      "cycling": 4894,
      "broch": 4895,
      "throughout": 4896,
      "specialty": 4897,
      "efforts": 4898,
      "largest": 4899,
      "beds": 4900,
      "reality": 4901,
      "interviews": 4902,
      "favorable": 4903,
      "sleeve": 4904,
      "flights": 4905,
      "southern": 4906,
      "packages": 4907,
      "treated": 4908,
      "recommended": 4909,
      "depending": 4910,
      "posted": 4911,
      "postcards": 4912,
      "dedu": 4913,
      "pairs": 4914,
      "generation": 4915,
      "sorts": 4916,
      "polite": 4917,
      "temper": 4918,
      "tempor": 4919,
      "logical": 4920,
      "techni": 4921,
      "pattern": 4922,
      "patience": 4923,
      "sticks": 4924,
      "educational": 4925,
      "arrangement": 4926,
      "relieve": 4927,
      "conditioner": 4928,
      "animal": 4929,
      "wooden": 4930,
      "quarters": 4931,
      "withdrawal": 4932,
      "jumped": 4933,
      "destination": 4934,
      "confirmation": 4935,
      "thorough": 4936,
      "structure": 4937,
      "efficiency": 4938,
      "organization": 4939,
      "scary": 4940,
      "dorm": 4941,
      "identification": 4942,
      "difficulty": 4943,
      "engineering": 4944,
      "reduction": 4945,
      "delayed": 4946,
      "hamburger": 4947,
      "favourite": 4948,
      "continued": 4949,
      "enterprise": 4950,
      "wireless": 4951,
      "fabulous": 4952,
      "reply": 4953,
      "wilson": 4954,
      "arranged": 4955,
      "constant": 4956,
      "frame": 4957,
      "execut": 4958,
      "aluminum": 4959,
      "apparently": 4960,
      "ridiculous": 4961,
      "atmosphere": 4962,
      "colum": 4963,
      "plumbing": 4964,
      "aer": 4965,
      "bare": 4966,
      "dies": 4967,
      "evalu": 4968,
      "gown": 4969,
      "hiring": 4970,
      "jazz": 4971,
      "plot": 4972,
      "rand": 4973,
      "tina": 4974,
      "wound": 4975,
      "yang": 4976,
      "thail": 4977,
      "inju": 4978,
      "rear": 4979,
      "remove": 4980,
      "reference": 4981,
      "returning": 4982,
      "youth": 4983,
      "atic": 4984,
      "tood": 4985,
      "toms": 4986,
      "toys": 4987,
      "tower": 4988,
      "erable": 4989,
      "metal": 4990,
      "stro": 4991,
      "semin": 4992,
      "heating": 4993,
      "beth": 4994,
      "behave": 4995,
      "envelo": 4996,
      "assured": 4997,
      "aland": 4998,
      "alive": 4999
    },
    "merges": [
      [
        "t",
        "h"
      ],
      [
        "o",
        "u"
      ],
      [
        "i",
        "n"
      ],
      [
        "r",
        "e"
      ],
      [
        "a",
        "n"
      ],
      [
        "th",
        "e"
      ],
      [
        "y",
        "ou"
      ],
      [
        "a",
        "t"
      ],
      [
        "t",
        "o"
      ],
      [
        "o",
        "n"
      ],
      [
        "e",
        "r"
      ],
      [
        "i",
        "t"
      ],
      [
        "l",
        "l"
      ],
      [
        "i",
        "s"
      ],
      [
        "m",
        "e"
      ],
      [
        "o",
        "r"
      ],
      [
        "in",
        "g"
      ],
      [
        "v",
        "e"
      ],
      [
        "s",
        "t"
      ],
      [
        "s",
        "e"
      ],
      [
        "l",
        "e"
      ],
      [
        "h",
        "e"
      ],
      [
        "h",
        "a"
      ],
      [
        "w",
        "e"
      ],
      [
        "a",
        "r"
      ],
      [
        "an",
        "d"
      ],
      [
        "o",
        "w"
      ],
      [
        "b",
        "e"
      ],
      [
        "k",
        "e"
      ],
      [
        "o",
        "f"
      ],
      [
        "e",
        "s"
      ],
      [
        "a",
        "y"
      ],
      [
        "e",
        "n"
      ],
      [
        "th",
        "at"
      ],
      [
        "w",
        "h"
      ],
      [
        "d",
        "o"
      ],
      [
        "f",
        "or"
      ],
      [
        "g",
        "o"
      ],
      [
        "s",
        "o"
      ],
      [
        "i",
        "c"
      ],
      [
        "a",
        "s"
      ],
      [
        "ha",
        "ve"
      ],
      [
        "a",
        "l"
      ],
      [
        "w",
        "i"
      ],
      [
        "a",
        "ll"
      ],
      [
        "l",
        "d"
      ],
      [
        "a",
        "re"
      ],
      [
        "c",
        "h"
      ],
      [
        "l",
        "i"
      ],
      [
        "e",
        "d"
      ],
      [
        "u",
        "t"
      ],
      [
        "r",
        "o"
      ],
      [
        "g",
        "h"
      ],
      [
        "c",
        "o"
      ],
      [
        "n",
        "o"
      ],
      [
        "v",
        "er"
      ],
      [
        "wh",
        "at"
      ],
      [
        "c",
        "an"
      ],
      [
        "i",
        "d"
      ],
      [
        "g",
        "e"
      ],
      [
        "l",
        "o"
      ],
      [
        "n",
        "e"
      ],
      [
        "you",
        "r"
      ],
      [
        "ou",
        "ld"
      ],
      [
        "r",
        "i"
      ],
      [
        "a",
        "c"
      ],
      [
        "m",
        "y"
      ],
      [
        "ou",
        "t"
      ],
      [
        "a",
        "b"
      ],
      [
        "n",
        "t"
      ],
      [
        "gh",
        "t"
      ],
      [
        "i",
        "on"
      ],
      [
        "a",
        "d"
      ],
      [
        "s",
        "u"
      ],
      [
        "n",
        "ow"
      ],
      [
        "i",
        "r"
      ],
      [
        "on",
        "e"
      ],
      [
        "th",
        "is"
      ],
      [
        "li",
        "ke"
      ],
      [
        "l",
        "y"
      ],
      [
        "b",
        "ut"
      ],
      [
        "h",
        "ow"
      ],
      [
        "m",
        "o"
      ],
      [
        "a",
        "m"
      ],
      [
        "wi",
        "th"
      ],
      [
        "an",
        "y"
      ],
      [
        "o",
        "d"
      ],
      [
        "t",
        "er"
      ],
      [
        "o",
        "k"
      ],
      [
        "t",
        "i"
      ],
      [
        "p",
        "le"
      ],
      [
        "i",
        "f"
      ],
      [
        "he",
        "re"
      ],
      [
        "p",
        "e"
      ],
      [
        "ou",
        "r"
      ],
      [
        "a",
        "ke"
      ],
      [
        "t",
        "e"
      ],
      [
        "so",
        "me"
      ],
      [
        "in",
        "k"
      ],
      [
        "u",
        "st"
      ],
      [
        "d",
        "on"
      ],
      [
        "an",
        "t"
      ],
      [
        "ver",
        "y"
      ],
      [
        "wi",
        "ll"
      ],
      [
        "ge",
        "t"
      ],
      [
        "the",
        "re"
      ],
      [
        "ab",
        "out"
      ],
      [
        "d",
        "ay"
      ],
      [
        "f",
        "e"
      ],
      [
        "s",
        "h"
      ],
      [
        "c",
        "e"
      ],
      [
        "th",
        "ing"
      ],
      [
        "no",
        "t"
      ],
      [
        "t",
        "r"
      ],
      [
        "n",
        "d"
      ],
      [
        "all",
        "y"
      ],
      [
        "th",
        "ink"
      ],
      [
        "w",
        "or"
      ],
      [
        "u",
        "s"
      ],
      [
        "y",
        "es"
      ],
      [
        "e",
        "x"
      ],
      [
        "k",
        "now"
      ],
      [
        "go",
        "od"
      ],
      [
        "th",
        "an"
      ],
      [
        "we",
        "ll"
      ],
      [
        "se",
        "e"
      ],
      [
        "d",
        "e"
      ],
      [
        "m",
        "p"
      ],
      [
        "ti",
        "me"
      ],
      [
        "w",
        "ould"
      ],
      [
        "the",
        "r"
      ],
      [
        "w",
        "as"
      ],
      [
        "j",
        "ust"
      ],
      [
        "ic",
        "e"
      ],
      [
        "the",
        "y"
      ],
      [
        "a",
        "se"
      ],
      [
        "h",
        "o"
      ],
      [
        "p",
        "ro"
      ],
      [
        "in",
        "d"
      ],
      [
        "y",
        "e"
      ],
      [
        "p",
        "o"
      ],
      [
        "u",
        "r"
      ],
      [
        "ri",
        "ght"
      ],
      [
        "r",
        "y"
      ],
      [
        "w",
        "ant"
      ],
      [
        "p",
        "er"
      ],
      [
        "d",
        "id"
      ],
      [
        "than",
        "k"
      ],
      [
        "at",
        "ion"
      ],
      [
        "u",
        "p"
      ],
      [
        "a",
        "g"
      ],
      [
        "me",
        "nt"
      ],
      [
        "a",
        "in"
      ],
      [
        "at",
        "e"
      ],
      [
        "p",
        "l"
      ],
      [
        "w",
        "ay"
      ],
      [
        "u",
        "n"
      ],
      [
        "in",
        "e"
      ],
      [
        "ar",
        "t"
      ],
      [
        "u",
        "se"
      ],
      [
        "t",
        "ake"
      ],
      [
        "ple",
        "ase"
      ],
      [
        "i",
        "ve"
      ],
      [
        "c",
        "on"
      ],
      [
        "o",
        "h"
      ],
      [
        "wor",
        "k"
      ],
      [
        "h",
        "i"
      ],
      [
        "m",
        "u"
      ],
      [
        "le",
        "t"
      ],
      [
        "a",
        "st"
      ],
      [
        "a",
        "f"
      ],
      [
        "q",
        "u"
      ],
      [
        "b",
        "o"
      ],
      [
        "ne",
        "ed"
      ],
      [
        "lo",
        "ok"
      ],
      [
        "c",
        "t"
      ],
      [
        "re",
        "ally"
      ],
      [
        "co",
        "me"
      ],
      [
        "mu",
        "ch"
      ],
      [
        "to",
        "o"
      ],
      [
        "a",
        "p"
      ],
      [
        "f",
        "o"
      ],
      [
        "he",
        "n"
      ],
      [
        "go",
        "ing"
      ],
      [
        "i",
        "ght"
      ],
      [
        "b",
        "le"
      ],
      [
        "u",
        "l"
      ],
      [
        "on",
        "g"
      ],
      [
        "re",
        "s"
      ],
      [
        "ro",
        "m"
      ],
      [
        "i",
        "l"
      ],
      [
        "en",
        "t"
      ],
      [
        "s",
        "a"
      ],
      [
        "c",
        "k"
      ],
      [
        "s",
        "he"
      ],
      [
        "f",
        "rom"
      ],
      [
        "en",
        "d"
      ],
      [
        "c",
        "ould"
      ],
      [
        "w",
        "hen"
      ],
      [
        "ou",
        "nd"
      ],
      [
        "ne",
        "w"
      ],
      [
        "he",
        "l"
      ],
      [
        "ac",
        "k"
      ],
      [
        "sh",
        "ould"
      ],
      [
        "i",
        "ll"
      ],
      [
        "m",
        "ay"
      ],
      [
        "ar",
        "d"
      ],
      [
        "hel",
        "p"
      ],
      [
        "j",
        "o"
      ],
      [
        "co",
        "mp"
      ],
      [
        "n",
        "ing"
      ],
      [
        "i",
        "g"
      ],
      [
        "c",
        "he"
      ],
      [
        "the",
        "n"
      ],
      [
        "or",
        "t"
      ],
      [
        "e",
        "t"
      ],
      [
        "mo",
        "re"
      ],
      [
        "re",
        "d"
      ],
      [
        "es",
        "s"
      ],
      [
        "it",
        "e"
      ],
      [
        "go",
        "t"
      ],
      [
        "m",
        "ake"
      ],
      [
        "of",
        "f"
      ],
      [
        "e",
        "l"
      ],
      [
        "m",
        "or"
      ],
      [
        "b",
        "y"
      ],
      [
        "id",
        "e"
      ],
      [
        "su",
        "re"
      ],
      [
        "ac",
        "t"
      ],
      [
        "p",
        "p"
      ],
      [
        "the",
        "m"
      ],
      [
        "s",
        "p"
      ],
      [
        "o",
        "m"
      ],
      [
        "o",
        "ther"
      ],
      [
        "p",
        "re"
      ],
      [
        "a",
        "k"
      ],
      [
        "g",
        "re"
      ],
      [
        "ab",
        "le"
      ],
      [
        "e",
        "ve"
      ],
      [
        "c",
        "ou"
      ],
      [
        "be",
        "en"
      ],
      [
        "r",
        "a"
      ],
      [
        "w",
        "here"
      ],
      [
        "it",
        "y"
      ],
      [
        "co",
        "m"
      ],
      [
        "e",
        "very"
      ],
      [
        "wh",
        "y"
      ],
      [
        "a",
        "me"
      ],
      [
        "er",
        "s"
      ],
      [
        "b",
        "u"
      ],
      [
        "ha",
        "r"
      ],
      [
        "re",
        "e"
      ],
      [
        "o",
        "ver"
      ],
      [
        "do",
        "es"
      ],
      [
        "h",
        "er"
      ],
      [
        "o",
        "ple"
      ],
      [
        "pe",
        "ople"
      ],
      [
        "ha",
        "s"
      ],
      [
        "te",
        "ll"
      ],
      [
        "is",
        "h"
      ],
      [
        "p",
        "r"
      ],
      [
        "c",
        "l"
      ],
      [
        "w",
        "o"
      ],
      [
        "ro",
        "om"
      ],
      [
        "ow",
        "n"
      ],
      [
        "m",
        "b"
      ],
      [
        "lo",
        "t"
      ],
      [
        "re",
        "ad"
      ],
      [
        "t",
        "y"
      ],
      [
        "i",
        "e"
      ],
      [
        "re",
        "st"
      ],
      [
        "af",
        "ter"
      ],
      [
        "s",
        "i"
      ],
      [
        "g",
        "u"
      ],
      [
        "f",
        "ir"
      ],
      [
        "we",
        "e"
      ],
      [
        "a",
        "ch"
      ],
      [
        "ar",
        "s"
      ],
      [
        "c",
        "all"
      ],
      [
        "b",
        "r"
      ],
      [
        "g",
        "r"
      ],
      [
        "g",
        "ive"
      ],
      [
        "ou",
        "s"
      ],
      [
        "cou",
        "nt"
      ],
      [
        "m",
        "ar"
      ],
      [
        "b",
        "us"
      ],
      [
        "c",
        "i"
      ],
      [
        "be",
        "t"
      ],
      [
        "m",
        "an"
      ],
      [
        "gre",
        "at"
      ],
      [
        "s",
        "pe"
      ],
      [
        "s",
        "ay"
      ],
      [
        "ch",
        "o"
      ],
      [
        "s",
        "ir"
      ],
      [
        "ou",
        "gh"
      ],
      [
        "s",
        "to"
      ],
      [
        "t",
        "en"
      ],
      [
        "ha",
        "d"
      ],
      [
        "s",
        "or"
      ],
      [
        "fir",
        "st"
      ],
      [
        "l",
        "ong"
      ],
      [
        "p",
        "art"
      ],
      [
        "b",
        "ack"
      ],
      [
        "d",
        "er"
      ],
      [
        "m",
        "on"
      ],
      [
        "l",
        "f"
      ],
      [
        "sor",
        "ry"
      ],
      [
        "c",
        "our"
      ],
      [
        "n",
        "ight"
      ],
      [
        "c",
        "a"
      ],
      [
        "e",
        "p"
      ],
      [
        "m",
        "s"
      ],
      [
        "v",
        "ing"
      ],
      [
        "t",
        "wo"
      ],
      [
        "wh",
        "o"
      ],
      [
        "pro",
        "ble"
      ],
      [
        "i",
        "es"
      ],
      [
        "hi",
        "m"
      ],
      [
        "a",
        "ge"
      ],
      [
        "to",
        "day"
      ],
      [
        "w",
        "on"
      ],
      [
        "tr",
        "y"
      ],
      [
        "m",
        "any"
      ],
      [
        "fo",
        "re"
      ],
      [
        "on",
        "ly"
      ],
      [
        "as",
        "s"
      ],
      [
        "ch",
        "an"
      ],
      [
        "o",
        "l"
      ],
      [
        "jo",
        "b"
      ],
      [
        "u",
        "re"
      ],
      [
        "le",
        "s"
      ],
      [
        "any",
        "thing"
      ],
      [
        "g",
        "l"
      ],
      [
        "cour",
        "se"
      ],
      [
        "x",
        "t"
      ],
      [
        "u",
        "nd"
      ],
      [
        "mo",
        "st"
      ],
      [
        "a",
        "ve"
      ],
      [
        "some",
        "thing"
      ],
      [
        "comp",
        "any"
      ],
      [
        "p",
        "ay"
      ],
      [
        "ic",
        "k"
      ],
      [
        "ac",
        "e"
      ],
      [
        "mb",
        "er"
      ],
      [
        "t",
        "le"
      ],
      [
        "h",
        "is"
      ],
      [
        "m",
        "is"
      ],
      [
        "r",
        "ow"
      ],
      [
        "m",
        "in"
      ],
      [
        "f",
        "ri"
      ],
      [
        "ne",
        "xt"
      ],
      [
        "l",
        "ast"
      ],
      [
        "wee",
        "k"
      ],
      [
        "k",
        "ind"
      ],
      [
        "t",
        "ing"
      ],
      [
        "ha",
        "pp"
      ],
      [
        "a",
        "h"
      ],
      [
        "c",
        "ar"
      ],
      [
        "did",
        "n"
      ],
      [
        "al",
        "k"
      ],
      [
        "s",
        "er"
      ],
      [
        "s",
        "it"
      ],
      [
        "in",
        "ter"
      ],
      [
        "lo",
        "ve"
      ],
      [
        "fe",
        "el"
      ],
      [
        "d",
        "i"
      ],
      [
        "al",
        "so"
      ],
      [
        "ic",
        "h"
      ],
      [
        "n",
        "ice"
      ],
      [
        "f",
        "ind"
      ],
      [
        "l",
        "it"
      ],
      [
        "one",
        "y"
      ],
      [
        "mor",
        "ning"
      ],
      [
        "bet",
        "ter"
      ],
      [
        "t",
        "s"
      ],
      [
        "d",
        "u"
      ],
      [
        "proble",
        "m"
      ],
      [
        "f",
        "a"
      ],
      [
        "an",
        "s"
      ],
      [
        "at",
        "er"
      ],
      [
        "we",
        "re"
      ],
      [
        "me",
        "et"
      ],
      [
        "bu",
        "y"
      ],
      [
        "d",
        "is"
      ],
      [
        "thank",
        "s"
      ],
      [
        "way",
        "s"
      ],
      [
        "p",
        "en"
      ],
      [
        "m",
        "a"
      ],
      [
        "st",
        "u"
      ],
      [
        "ou",
        "ght"
      ],
      [
        "w",
        "r"
      ],
      [
        "an",
        "ce"
      ],
      [
        "che",
        "ck"
      ],
      [
        "fri",
        "end"
      ],
      [
        "c",
        "lo"
      ],
      [
        "m",
        "ust"
      ],
      [
        "be",
        "fore"
      ],
      [
        "d",
        "own"
      ],
      [
        "ke",
        "d"
      ],
      [
        "ca",
        "use"
      ],
      [
        "s",
        "ound"
      ],
      [
        "f",
        "in"
      ],
      [
        "lit",
        "tle"
      ],
      [
        "p",
        "a"
      ],
      [
        "read",
        "y"
      ],
      [
        "m",
        "oney"
      ],
      [
        "the",
        "se"
      ],
      [
        "m",
        "r"
      ],
      [
        "s",
        "on"
      ],
      [
        "pl",
        "ay"
      ],
      [
        "ig",
        "n"
      ],
      [
        "wh",
        "ich"
      ],
      [
        "al",
        "ways"
      ],
      [
        "w",
        "a"
      ],
      [
        "in",
        "te"
      ],
      [
        "d",
        "r"
      ],
      [
        "ex",
        "c"
      ],
      [
        "ye",
        "ah"
      ],
      [
        "i",
        "mp"
      ],
      [
        "st",
        "art"
      ],
      [
        "n",
        "ame"
      ],
      [
        "ho",
        "me"
      ],
      [
        "re",
        "nt"
      ],
      [
        "p",
        "t"
      ],
      [
        "ur",
        "n"
      ],
      [
        "inte",
        "rest"
      ],
      [
        "v",
        "ie"
      ],
      [
        "m",
        "ad"
      ],
      [
        "may",
        "be"
      ],
      [
        "i",
        "le"
      ],
      [
        "d",
        "if"
      ],
      [
        "thing",
        "s"
      ],
      [
        "p",
        "ut"
      ],
      [
        "mon",
        "th"
      ],
      [
        "ag",
        "ain"
      ],
      [
        "l",
        "u"
      ],
      [
        "n",
        "u"
      ],
      [
        "is",
        "t"
      ],
      [
        "as",
        "k"
      ],
      [
        "at",
        "ch"
      ],
      [
        "f",
        "ul"
      ],
      [
        "be",
        "cause"
      ],
      [
        "se",
        "lf"
      ],
      [
        "f",
        "r"
      ],
      [
        "to",
        "r"
      ],
      [
        "wa",
        "it"
      ],
      [
        "for",
        "m"
      ],
      [
        "sh",
        "o"
      ],
      [
        "mor",
        "row"
      ],
      [
        "to",
        "morrow"
      ],
      [
        "n",
        "er"
      ],
      [
        "me",
        "an"
      ],
      [
        "ke",
        "t"
      ],
      [
        "ion",
        "s"
      ],
      [
        "c",
        "er"
      ],
      [
        "in",
        "t"
      ],
      [
        "o",
        "se"
      ],
      [
        "ye",
        "ar"
      ],
      [
        "t",
        "a"
      ],
      [
        "day",
        "s"
      ],
      [
        "f",
        "ine"
      ],
      [
        "st",
        "ill"
      ],
      [
        "res",
        "s"
      ],
      [
        "c",
        "or"
      ],
      [
        "sound",
        "s"
      ],
      [
        "ne",
        "ver"
      ],
      [
        "ak",
        "ing"
      ],
      [
        "l",
        "a"
      ],
      [
        "ar",
        "y"
      ],
      [
        "min",
        "ut"
      ],
      [
        "m",
        "ind"
      ],
      [
        "st",
        "and"
      ],
      [
        "har",
        "d"
      ],
      [
        "fe",
        "w"
      ],
      [
        "the",
        "ir"
      ],
      [
        "ke",
        "ep"
      ],
      [
        "l",
        "ate"
      ],
      [
        "ou",
        "se"
      ],
      [
        "in",
        "to"
      ],
      [
        "fo",
        "od"
      ],
      [
        "re",
        "n"
      ],
      [
        "ide",
        "a"
      ],
      [
        "ho",
        "pe"
      ],
      [
        "s",
        "how"
      ],
      [
        "is",
        "e"
      ],
      [
        "c",
        "are"
      ],
      [
        "f",
        "ic"
      ],
      [
        "s",
        "cho"
      ],
      [
        "s",
        "m"
      ],
      [
        "an",
        "g"
      ],
      [
        "do",
        "ing"
      ],
      [
        "c",
        "ard"
      ],
      [
        "und",
        "er"
      ],
      [
        "le",
        "ar"
      ],
      [
        "be",
        "st"
      ],
      [
        "eve",
        "n"
      ],
      [
        "t",
        "alk"
      ],
      [
        "t",
        "urn"
      ],
      [
        "se",
        "d"
      ],
      [
        "p",
        "h"
      ],
      [
        "th",
        "ree"
      ],
      [
        "b",
        "ig"
      ],
      [
        "e",
        "st"
      ],
      [
        "bo",
        "ok"
      ],
      [
        "b",
        "ad"
      ],
      [
        "is",
        "n"
      ],
      [
        "scho",
        "ol"
      ],
      [
        "h",
        "our"
      ],
      [
        "h",
        "ouse"
      ],
      [
        "b",
        "it"
      ],
      [
        "t",
        "ri"
      ],
      [
        "b",
        "l"
      ],
      [
        "qu",
        "ite"
      ],
      [
        "p",
        "s"
      ],
      [
        "v",
        "is"
      ],
      [
        "ar",
        "ound"
      ],
      [
        "chan",
        "ge"
      ],
      [
        "stu",
        "d"
      ],
      [
        "i",
        "ld"
      ],
      [
        "f",
        "am"
      ],
      [
        "li",
        "ght"
      ],
      [
        "off",
        "ice"
      ],
      [
        "p",
        "ar"
      ],
      [
        "s",
        "ha"
      ],
      [
        "in",
        "ess"
      ],
      [
        "ll",
        "o"
      ],
      [
        "h",
        "and"
      ],
      [
        "en",
        "gl"
      ],
      [
        "work",
        "ing"
      ],
      [
        "pl",
        "an"
      ],
      [
        "el",
        "se"
      ],
      [
        "i",
        "ly"
      ],
      [
        "ye",
        "ars"
      ],
      [
        "i",
        "ous"
      ],
      [
        "cl",
        "ass"
      ],
      [
        "s",
        "s"
      ],
      [
        "u",
        "ally"
      ],
      [
        "look",
        "ing"
      ],
      [
        "bus",
        "iness"
      ],
      [
        "pl",
        "ace"
      ],
      [
        "time",
        "s"
      ],
      [
        "e",
        "at"
      ],
      [
        "he",
        "llo"
      ],
      [
        "ra",
        "id"
      ],
      [
        "af",
        "raid"
      ],
      [
        "c",
        "har"
      ],
      [
        "exc",
        "use"
      ],
      [
        "o",
        "ld"
      ],
      [
        "do",
        "ll"
      ],
      [
        "or",
        "der"
      ],
      [
        "dif",
        "fe"
      ],
      [
        "engl",
        "ish"
      ],
      [
        "i",
        "m"
      ],
      [
        "mad",
        "e"
      ],
      [
        "u",
        "su"
      ],
      [
        "st",
        "ay"
      ],
      [
        "a",
        "v"
      ],
      [
        "po",
        "sit"
      ],
      [
        "we",
        "l"
      ],
      [
        "every",
        "thing"
      ],
      [
        "act",
        "ually"
      ],
      [
        "d",
        "es"
      ],
      [
        "f",
        "er"
      ],
      [
        "m",
        "er"
      ],
      [
        "en",
        "ce"
      ],
      [
        "mis",
        "s"
      ],
      [
        "st",
        "er"
      ],
      [
        "ci",
        "al"
      ],
      [
        "u",
        "e"
      ],
      [
        "jo",
        "y"
      ],
      [
        "dr",
        "ink"
      ],
      [
        "li",
        "ve"
      ],
      [
        "hi",
        "gh"
      ],
      [
        "no",
        "on"
      ],
      [
        "an",
        "other"
      ],
      [
        "does",
        "n"
      ],
      [
        "s",
        "ide"
      ],
      [
        "c",
        "re"
      ],
      [
        "th",
        "ought"
      ],
      [
        "an",
        "k"
      ],
      [
        "r",
        "u"
      ],
      [
        "so",
        "on"
      ],
      [
        "en",
        "joy"
      ],
      [
        "nu",
        "mber"
      ],
      [
        "m",
        "at"
      ],
      [
        "st",
        "e"
      ],
      [
        "v",
        "ice"
      ],
      [
        "le",
        "ave"
      ],
      [
        "we",
        "nt"
      ],
      [
        "per",
        "son"
      ],
      [
        "z",
        "e"
      ],
      [
        "have",
        "n"
      ],
      [
        "a",
        "ir"
      ],
      [
        "ac",
        "count"
      ],
      [
        "e",
        "as"
      ],
      [
        "d",
        "in"
      ],
      [
        "happ",
        "en"
      ],
      [
        "sa",
        "me"
      ],
      [
        "it",
        "s"
      ],
      [
        "at",
        "ed"
      ],
      [
        "e",
        "ach"
      ],
      [
        "won",
        "der"
      ],
      [
        "se",
        "t"
      ],
      [
        "su",
        "r"
      ],
      [
        "sa",
        "id"
      ],
      [
        "c",
        "ent"
      ],
      [
        "t",
        "ain"
      ],
      [
        "t",
        "ic"
      ],
      [
        "after",
        "noon"
      ],
      [
        "d",
        "ri"
      ],
      [
        "he",
        "ar"
      ],
      [
        "ch",
        "ine"
      ],
      [
        "chine",
        "se"
      ],
      [
        "f",
        "u"
      ],
      [
        "ve",
        "n"
      ],
      [
        "as",
        "h"
      ],
      [
        "wh",
        "ile"
      ],
      [
        "th",
        "ose"
      ],
      [
        "con",
        "d"
      ],
      [
        "e",
        "ver"
      ],
      [
        "su",
        "ch"
      ],
      [
        "ct",
        "ion"
      ],
      [
        "pr",
        "ice"
      ],
      [
        "be",
        "li"
      ],
      [
        "am",
        "er"
      ],
      [
        "ph",
        "one"
      ],
      [
        "he",
        "ard"
      ],
      [
        "pre",
        "t"
      ],
      [
        "happ",
        "y"
      ],
      [
        "l",
        "ine"
      ],
      [
        "gu",
        "ess"
      ],
      [
        "usu",
        "ally"
      ],
      [
        "d",
        "ing"
      ],
      [
        "vie",
        "w"
      ],
      [
        "minut",
        "es"
      ],
      [
        "b",
        "re"
      ],
      [
        "m",
        "ight"
      ],
      [
        "w",
        "atch"
      ],
      [
        "d",
        "one"
      ],
      [
        "br",
        "ing"
      ],
      [
        "i",
        "p"
      ],
      [
        "e",
        "ar"
      ],
      [
        "de",
        "c"
      ],
      [
        "c",
        "le"
      ],
      [
        "s",
        "k"
      ],
      [
        "imp",
        "ort"
      ],
      [
        "a",
        "ut"
      ],
      [
        "p",
        "are"
      ],
      [
        "do",
        "c"
      ],
      [
        "get",
        "ting"
      ],
      [
        "doll",
        "ars"
      ],
      [
        "re",
        "me"
      ],
      [
        "he",
        "ad"
      ],
      [
        "per",
        "i"
      ],
      [
        "beli",
        "eve"
      ],
      [
        "b",
        "ab"
      ],
      [
        "com",
        "ing"
      ],
      [
        "wel",
        "come"
      ],
      [
        "f",
        "i"
      ],
      [
        "pret",
        "ty"
      ],
      [
        "pro",
        "du"
      ],
      [
        "s",
        "ing"
      ],
      [
        "p",
        "ort"
      ],
      [
        "to",
        "night"
      ],
      [
        "al",
        "ready"
      ],
      [
        "comp",
        "ut"
      ],
      [
        "ye",
        "t"
      ],
      [
        "look",
        "s"
      ],
      [
        "diffe",
        "rent"
      ],
      [
        "l",
        "ow"
      ],
      [
        "en",
        "ough"
      ],
      [
        "f",
        "ive"
      ],
      [
        "ment",
        "s"
      ],
      [
        "c",
        "us"
      ],
      [
        "f",
        "t"
      ],
      [
        "use",
        "d"
      ],
      [
        "f",
        "un"
      ],
      [
        "r",
        "ough"
      ],
      [
        "g",
        "ir"
      ],
      [
        "t",
        "able"
      ],
      [
        "ad",
        "d"
      ],
      [
        "din",
        "ner"
      ],
      [
        "ul",
        "ar"
      ],
      [
        "f",
        "ree"
      ],
      [
        "ll",
        "e"
      ],
      [
        "tr",
        "ain"
      ],
      [
        "be",
        "aut"
      ],
      [
        "wor",
        "ry"
      ],
      [
        "po",
        "int"
      ],
      [
        "l",
        "ic"
      ],
      [
        "sp",
        "ort"
      ],
      [
        "c",
        "ity"
      ],
      [
        "l",
        "ater"
      ],
      [
        "se",
        "nt"
      ],
      [
        "u",
        "nt"
      ],
      [
        "v",
        "or"
      ],
      [
        "fe",
        "e"
      ],
      [
        "ver",
        "s"
      ],
      [
        "ok",
        "ay"
      ],
      [
        "o",
        "pen"
      ],
      [
        "c",
        "y"
      ],
      [
        "he",
        "d"
      ],
      [
        "b",
        "ro"
      ],
      [
        "meet",
        "ing"
      ],
      [
        "friend",
        "s"
      ],
      [
        "p",
        "u"
      ],
      [
        "a",
        "way"
      ],
      [
        "in",
        "a"
      ],
      [
        "al",
        "s"
      ],
      [
        "th",
        "rough"
      ],
      [
        "u",
        "m"
      ],
      [
        "se",
        "s"
      ],
      [
        "si",
        "ble"
      ],
      [
        "s",
        "id"
      ],
      [
        "under",
        "stand"
      ],
      [
        "import",
        "ant"
      ],
      [
        "j",
        "e"
      ],
      [
        "s",
        "ign"
      ],
      [
        "cl",
        "u"
      ],
      [
        "at",
        "t"
      ],
      [
        "qu",
        "est"
      ],
      [
        "po",
        "s"
      ],
      [
        "wr",
        "ong"
      ],
      [
        "fu",
        "ll"
      ],
      [
        "r",
        "un"
      ],
      [
        "eve",
        "ning"
      ],
      [
        "sm",
        "all"
      ],
      [
        "of",
        "ten"
      ],
      [
        "spe",
        "ak"
      ],
      [
        "ic",
        "al"
      ],
      [
        "co",
        "lle"
      ],
      [
        "reme",
        "mber"
      ],
      [
        "k",
        "ing"
      ],
      [
        "to",
        "m"
      ],
      [
        "part",
        "y"
      ],
      [
        "re",
        "ce"
      ],
      [
        "off",
        "er"
      ],
      [
        "b",
        "ank"
      ],
      [
        "fam",
        "ily"
      ],
      [
        "li",
        "fe"
      ],
      [
        "co",
        "st"
      ],
      [
        "g",
        "er"
      ],
      [
        "ch",
        "ild"
      ],
      [
        "ation",
        "s"
      ],
      [
        "c",
        "ur"
      ],
      [
        "w",
        "ard"
      ],
      [
        "we",
        "d"
      ],
      [
        "he",
        "y"
      ],
      [
        "spe",
        "cial"
      ],
      [
        "pe",
        "ct"
      ],
      [
        "no",
        "thing"
      ],
      [
        "fe",
        "ct"
      ],
      [
        "ag",
        "ree"
      ],
      [
        "ser",
        "vice"
      ],
      [
        "comput",
        "er"
      ],
      [
        "to",
        "ge"
      ],
      [
        "as",
        "on"
      ],
      [
        "con",
        "t"
      ],
      [
        "toge",
        "ther"
      ],
      [
        "c",
        "ess"
      ],
      [
        "in",
        "form"
      ],
      [
        "re",
        "g"
      ],
      [
        "le",
        "ft"
      ],
      [
        "beaut",
        "if"
      ],
      [
        "e",
        "f"
      ],
      [
        "se",
        "nd"
      ],
      [
        "f",
        "ar"
      ],
      [
        "l",
        "ar"
      ],
      [
        "lear",
        "n"
      ],
      [
        "amer",
        "ic"
      ],
      [
        "mo",
        "ve"
      ],
      [
        "eas",
        "y"
      ],
      [
        "m",
        "us"
      ],
      [
        "be",
        "d"
      ],
      [
        "su",
        "p"
      ],
      [
        "ul",
        "t"
      ],
      [
        "l",
        "or"
      ],
      [
        "w",
        "alk"
      ],
      [
        "re",
        "al"
      ],
      [
        "it",
        "ion"
      ],
      [
        "j",
        "u"
      ],
      [
        "ge",
        "st"
      ],
      [
        "gl",
        "ad"
      ],
      [
        "f",
        "ast"
      ],
      [
        "f",
        "ill"
      ],
      [
        "wor",
        "ld"
      ],
      [
        "ex",
        "pen"
      ],
      [
        "count",
        "ry"
      ],
      [
        "cer",
        "tain"
      ],
      [
        "a",
        "ther"
      ],
      [
        "it",
        "ing"
      ],
      [
        "st",
        "r"
      ],
      [
        "beautif",
        "ul"
      ],
      [
        "sto",
        "p"
      ],
      [
        "b",
        "all"
      ],
      [
        "see",
        "ms"
      ],
      [
        "ri",
        "ed"
      ],
      [
        "un",
        "i"
      ],
      [
        "b",
        "ill"
      ],
      [
        "some",
        "one"
      ],
      [
        "ic",
        "t"
      ],
      [
        "mo",
        "ment"
      ],
      [
        "c",
        "red"
      ],
      [
        "u",
        "an"
      ],
      [
        "to",
        "n"
      ],
      [
        "res",
        "er"
      ],
      [
        "k",
        "id"
      ],
      [
        "it",
        "ies"
      ],
      [
        "ke",
        "nd"
      ],
      [
        "wee",
        "kend"
      ],
      [
        "s",
        "al"
      ],
      [
        "ha",
        "ving"
      ],
      [
        "a",
        "u"
      ],
      [
        "c",
        "es"
      ],
      [
        "ou",
        "ble"
      ],
      [
        "ex",
        "peri"
      ],
      [
        "b",
        "or"
      ],
      [
        "m",
        "i"
      ],
      [
        "ch",
        "ina"
      ],
      [
        "te",
        "l"
      ],
      [
        "ce",
        "pt"
      ],
      [
        "me",
        "d"
      ],
      [
        "te",
        "ach"
      ],
      [
        "tr",
        "ue"
      ],
      [
        "sup",
        "po"
      ],
      [
        "c",
        "ase"
      ],
      [
        "g",
        "ame"
      ],
      [
        "th",
        "ir"
      ],
      [
        "f",
        "our"
      ],
      [
        "al",
        "th"
      ],
      [
        "tr",
        "ave"
      ],
      [
        "e",
        "mp"
      ],
      [
        "s",
        "in"
      ],
      [
        "nt",
        "s"
      ],
      [
        "ho",
        "tel"
      ],
      [
        "c",
        "of"
      ],
      [
        "in",
        "v"
      ],
      [
        "bo",
        "th"
      ],
      [
        "man",
        "ag"
      ],
      [
        "c",
        "ut"
      ],
      [
        "s",
        "ive"
      ],
      [
        "to",
        "ld"
      ],
      [
        "ke",
        "n"
      ],
      [
        "od",
        "y"
      ],
      [
        "interest",
        "ed"
      ],
      [
        "s",
        "at"
      ],
      [
        "de",
        "part"
      ],
      [
        "a",
        "il"
      ],
      [
        "stud",
        "y"
      ],
      [
        "your",
        "self"
      ],
      [
        "ap",
        "art"
      ],
      [
        "cof",
        "fee"
      ],
      [
        "b",
        "ir"
      ],
      [
        "at",
        "ing"
      ],
      [
        "pro",
        "bab"
      ],
      [
        "pre",
        "fer"
      ],
      [
        "s",
        "mo"
      ],
      [
        "probab",
        "ly"
      ],
      [
        "it",
        "ed"
      ],
      [
        "be",
        "ing"
      ],
      [
        "inform",
        "ation"
      ],
      [
        "st",
        "re"
      ],
      [
        "su",
        "n"
      ],
      [
        "lu",
        "ck"
      ],
      [
        "ne",
        "t"
      ],
      [
        "some",
        "times"
      ],
      [
        "interest",
        "ing"
      ],
      [
        "hour",
        "s"
      ],
      [
        "l",
        "is"
      ],
      [
        "se",
        "at"
      ],
      [
        "bre",
        "ak"
      ],
      [
        "se",
        "cond"
      ],
      [
        "su",
        "g"
      ],
      [
        "mo",
        "vie"
      ],
      [
        "gir",
        "l"
      ],
      [
        "b",
        "ody"
      ],
      [
        "w",
        "ater"
      ],
      [
        "les",
        "s"
      ],
      [
        "mus",
        "ic"
      ],
      [
        "y",
        "s"
      ],
      [
        "y",
        "uan"
      ],
      [
        "a",
        "ur"
      ],
      [
        "g",
        "g"
      ],
      [
        "my",
        "self"
      ],
      [
        "rest",
        "aur"
      ],
      [
        "inter",
        "view"
      ],
      [
        "restaur",
        "ant"
      ],
      [
        "c",
        "ha"
      ],
      [
        "unt",
        "il"
      ],
      [
        "qu",
        "i"
      ],
      [
        "mar",
        "y"
      ],
      [
        "ma",
        "il"
      ],
      [
        "qu",
        "al"
      ],
      [
        "expen",
        "sive"
      ],
      [
        "se",
        "n"
      ],
      [
        "ap",
        "p"
      ],
      [
        "sha",
        "ll"
      ],
      [
        "sh",
        "ip"
      ],
      [
        "doc",
        "tor"
      ],
      [
        "ho",
        "t"
      ],
      [
        "fa",
        "vor"
      ],
      [
        "pp",
        "ing"
      ],
      [
        "ic",
        "es"
      ],
      [
        "ex",
        "pect"
      ],
      [
        "bus",
        "y"
      ],
      [
        "think",
        "ing"
      ],
      [
        "produ",
        "ct"
      ],
      [
        "un",
        "ch"
      ],
      [
        "n",
        "a"
      ],
      [
        "are",
        "n"
      ],
      [
        "mat",
        "ter"
      ],
      [
        "on",
        "ce"
      ],
      [
        "p",
        "ick"
      ],
      [
        "sp",
        "end"
      ],
      [
        "every",
        "one"
      ],
      [
        "a",
        "go"
      ],
      [
        "c",
        "r"
      ],
      [
        "o",
        "t"
      ],
      [
        "si",
        "x"
      ],
      [
        "p",
        "res"
      ],
      [
        "su",
        "m"
      ],
      [
        "ex",
        "am"
      ],
      [
        "b",
        "ag"
      ],
      [
        "at",
        "es"
      ],
      [
        "ye",
        "ster"
      ],
      [
        "yester",
        "day"
      ],
      [
        "i",
        "ent"
      ],
      [
        "sin",
        "ce"
      ],
      [
        "j",
        "oh"
      ],
      [
        "p",
        "as"
      ],
      [
        "char",
        "ge"
      ],
      [
        "manag",
        "er"
      ],
      [
        "joh",
        "n"
      ],
      [
        "s",
        "le"
      ],
      [
        "ri",
        "es"
      ],
      [
        "pa",
        "per"
      ],
      [
        "certain",
        "ly"
      ],
      [
        "an",
        "ge"
      ],
      [
        "se",
        "en"
      ],
      [
        "tic",
        "ket"
      ],
      [
        "f",
        "light"
      ],
      [
        "ou",
        "nt"
      ],
      [
        "ha",
        "lf"
      ],
      [
        "ne",
        "ar"
      ],
      [
        "ag",
        "es"
      ],
      [
        "h",
        "ur"
      ],
      [
        "we",
        "ather"
      ],
      [
        "cred",
        "it"
      ],
      [
        "we",
        "ar"
      ],
      [
        "call",
        "ed"
      ],
      [
        "al",
        "most"
      ],
      [
        "b",
        "ar"
      ],
      [
        "s",
        "ou"
      ],
      [
        "w",
        "ar"
      ],
      [
        "emp",
        "lo"
      ],
      [
        "se",
        "ver"
      ],
      [
        "be",
        "g"
      ],
      [
        "co",
        "ld"
      ],
      [
        "su",
        "it"
      ],
      [
        "clo",
        "ck"
      ],
      [
        "tri",
        "p"
      ],
      [
        "experi",
        "ence"
      ],
      [
        "stre",
        "et"
      ],
      [
        "ho",
        "ld"
      ],
      [
        "wi",
        "fe"
      ],
      [
        "m",
        "ach"
      ],
      [
        "co",
        "ok"
      ],
      [
        "apart",
        "ment"
      ],
      [
        "i",
        "an"
      ],
      [
        "he",
        "alth"
      ],
      [
        "bir",
        "th"
      ],
      [
        "f",
        "ound"
      ],
      [
        "th",
        "ough"
      ],
      [
        "ex",
        "act"
      ],
      [
        "pos",
        "sible"
      ],
      [
        "depart",
        "ment"
      ],
      [
        "pare",
        "nts"
      ],
      [
        "sever",
        "al"
      ],
      [
        "mar",
        "ket"
      ],
      [
        "happen",
        "ed"
      ],
      [
        "ple",
        "as"
      ],
      [
        "trave",
        "l"
      ],
      [
        "me",
        "n"
      ],
      [
        "g",
        "y"
      ],
      [
        "g",
        "en"
      ],
      [
        "t",
        "aking"
      ],
      [
        "it",
        "al"
      ],
      [
        "a",
        "z"
      ],
      [
        "to",
        "p"
      ],
      [
        "su",
        "b"
      ],
      [
        "ter",
        "ri"
      ],
      [
        "sug",
        "gest"
      ],
      [
        "w",
        "ish"
      ],
      [
        "te",
        "st"
      ],
      [
        "uni",
        "vers"
      ],
      [
        "c",
        "ri"
      ],
      [
        "m",
        "ain"
      ],
      [
        "gr",
        "ad"
      ],
      [
        "c",
        "en"
      ],
      [
        "c",
        "ash"
      ],
      [
        "bo",
        "ss"
      ],
      [
        "ser",
        "ious"
      ],
      [
        "posit",
        "ion"
      ],
      [
        "cle",
        "an"
      ],
      [
        "b",
        "and"
      ],
      [
        "ve",
        "s"
      ],
      [
        "st",
        "y"
      ],
      [
        "univers",
        "ity"
      ],
      [
        "ce",
        "ll"
      ],
      [
        "e",
        "le"
      ],
      [
        "f",
        "it"
      ],
      [
        "h",
        "u"
      ],
      [
        "co",
        "lor"
      ],
      [
        "t",
        "v"
      ],
      [
        "t",
        "ed"
      ],
      [
        "de",
        "al"
      ],
      [
        "a",
        "th"
      ],
      [
        "the",
        "s"
      ],
      [
        "any",
        "way"
      ],
      [
        "ap",
        "point"
      ],
      [
        "c",
        "al"
      ],
      [
        "ve",
        "d"
      ],
      [
        "sh",
        "ort"
      ],
      [
        "d",
        "ate"
      ],
      [
        "w",
        "ind"
      ],
      [
        "re",
        "ct"
      ],
      [
        "ter",
        "s"
      ],
      [
        "stud",
        "ent"
      ],
      [
        "ro",
        "ad"
      ],
      [
        "te",
        "am"
      ],
      [
        "reser",
        "v"
      ],
      [
        "i",
        "z"
      ],
      [
        "m",
        "ing"
      ],
      [
        "n",
        "y"
      ],
      [
        "ha",
        "ir"
      ],
      [
        "tr",
        "act"
      ],
      [
        "pre",
        "sent"
      ],
      [
        "r",
        "ing"
      ],
      [
        "in",
        "es"
      ],
      [
        "b",
        "ought"
      ],
      [
        "per",
        "fect"
      ],
      [
        "fr",
        "id"
      ],
      [
        "f",
        "re"
      ],
      [
        "w",
        "n"
      ],
      [
        "week",
        "s"
      ],
      [
        "s",
        "y"
      ],
      [
        "v",
        "al"
      ],
      [
        "j",
        "ing"
      ],
      [
        "me",
        "nd"
      ],
      [
        "clo",
        "thes"
      ],
      [
        "minut",
        "e"
      ],
      [
        "i",
        "a"
      ],
      [
        "je",
        "ct"
      ],
      [
        "er",
        "c"
      ],
      [
        "want",
        "ed"
      ],
      [
        "pr",
        "of"
      ],
      [
        "birth",
        "day"
      ],
      [
        "t",
        "our"
      ],
      [
        "wor",
        "d"
      ],
      [
        "de",
        "posit"
      ],
      [
        "ation",
        "al"
      ],
      [
        "lar",
        "ge"
      ],
      [
        "lo",
        "st"
      ],
      [
        "po",
        "p"
      ],
      [
        "re",
        "l"
      ],
      [
        "make",
        "s"
      ],
      [
        "call",
        "ing"
      ],
      [
        "in",
        "clu"
      ],
      [
        "b",
        "lo"
      ],
      [
        "p",
        "ack"
      ],
      [
        "p",
        "ie"
      ],
      [
        "t",
        "re"
      ],
      [
        "ll",
        "ow"
      ],
      [
        "se",
        "ll"
      ],
      [
        "ur",
        "ing"
      ],
      [
        "p",
        "ass"
      ],
      [
        "new",
        "s"
      ],
      [
        "ra",
        "ther"
      ],
      [
        "com",
        "mend"
      ],
      [
        "re",
        "ason"
      ],
      [
        "is",
        "hed"
      ],
      [
        "come",
        "s"
      ],
      [
        "av",
        "ail"
      ],
      [
        "c",
        "li"
      ],
      [
        "ex",
        "erc"
      ],
      [
        "pre",
        "ci"
      ],
      [
        "exact",
        "ly"
      ],
      [
        "frid",
        "ay"
      ],
      [
        "c",
        "ame"
      ],
      [
        "i",
        "ther"
      ],
      [
        "u",
        "res"
      ],
      [
        "gr",
        "am"
      ],
      [
        "to",
        "ry"
      ],
      [
        "tr",
        "ans"
      ],
      [
        "sa",
        "w"
      ],
      [
        "p",
        "on"
      ],
      [
        "re",
        "commend"
      ],
      [
        "id",
        "ent"
      ],
      [
        "mar",
        "ried"
      ],
      [
        "dif",
        "fic"
      ],
      [
        "f",
        "lo"
      ],
      [
        "v",
        "ac"
      ],
      [
        "could",
        "n"
      ],
      [
        "talk",
        "ing"
      ],
      [
        "child",
        "ren"
      ],
      [
        "lis",
        "ten"
      ],
      [
        "r",
        "ain"
      ],
      [
        "so",
        "l"
      ],
      [
        "mo",
        "m"
      ],
      [
        "wr",
        "ite"
      ],
      [
        "vis",
        "it"
      ],
      [
        "d",
        "an"
      ],
      [
        "beg",
        "in"
      ],
      [
        "l",
        "an"
      ],
      [
        "m",
        "aking"
      ],
      [
        "ic",
        "s"
      ],
      [
        "si",
        "ze"
      ],
      [
        "m",
        "it"
      ],
      [
        "p",
        "ri"
      ],
      [
        "for",
        "get"
      ],
      [
        "ear",
        "ly"
      ],
      [
        "avail",
        "able"
      ],
      [
        "c",
        "ed"
      ],
      [
        "on",
        "es"
      ],
      [
        "ti",
        "ve"
      ],
      [
        "ap",
        "preci"
      ],
      [
        "who",
        "le"
      ],
      [
        "inter",
        "net"
      ],
      [
        "month",
        "s"
      ],
      [
        "f",
        "act"
      ],
      [
        "re",
        "turn"
      ],
      [
        "sa",
        "les"
      ],
      [
        "sum",
        "mer"
      ],
      [
        "id",
        "ed"
      ],
      [
        "would",
        "n"
      ],
      [
        "sho",
        "pping"
      ],
      [
        "you",
        "n"
      ],
      [
        "be",
        "i"
      ],
      [
        "l",
        "unch"
      ],
      [
        "t",
        "u"
      ],
      [
        "ac",
        "cept"
      ],
      [
        "tr",
        "ad"
      ],
      [
        "pp",
        "ort"
      ],
      [
        "start",
        "ed"
      ],
      [
        "sle",
        "ep"
      ],
      [
        "f",
        "f"
      ],
      [
        "re",
        "su"
      ],
      [
        "mo",
        "ther"
      ],
      [
        "reserv",
        "ation"
      ],
      [
        "p",
        "ain"
      ],
      [
        "t",
        "ast"
      ],
      [
        "book",
        "s"
      ],
      [
        "p",
        "end"
      ],
      [
        "bei",
        "jing"
      ],
      [
        "a",
        "per"
      ],
      [
        "he",
        "s"
      ],
      [
        "try",
        "ing"
      ],
      [
        "par",
        "k"
      ],
      [
        "f",
        "ac"
      ],
      [
        "feel",
        "ing"
      ],
      [
        "cou",
        "ple"
      ],
      [
        "dri",
        "ve"
      ],
      [
        "d",
        "uring"
      ],
      [
        "with",
        "out"
      ],
      [
        "favor",
        "ite"
      ],
      [
        "se",
        "ven"
      ],
      [
        "cho",
        "ose"
      ],
      [
        "ta",
        "il"
      ],
      [
        "b",
        "as"
      ],
      [
        "f",
        "il"
      ],
      [
        "t",
        "al"
      ],
      [
        "al",
        "ong"
      ],
      [
        "li",
        "ving"
      ],
      [
        "te",
        "a"
      ],
      [
        "tr",
        "ouble"
      ],
      [
        "pro",
        "gram"
      ],
      [
        "wonder",
        "ful"
      ],
      [
        "f",
        "if"
      ],
      [
        "ti",
        "red"
      ],
      [
        "proble",
        "ms"
      ],
      [
        "product",
        "s"
      ],
      [
        "d",
        "ress"
      ],
      [
        "f",
        "ace"
      ],
      [
        "at",
        "ive"
      ],
      [
        "to",
        "wn"
      ],
      [
        "le",
        "ast"
      ],
      [
        "ra",
        "w"
      ],
      [
        "to",
        "ok"
      ],
      [
        "le",
        "d"
      ],
      [
        "was",
        "n"
      ],
      [
        "bu",
        "ild"
      ],
      [
        "say",
        "s"
      ],
      [
        "n",
        "ational"
      ],
      [
        "re",
        "port"
      ],
      [
        "sto",
        "re"
      ],
      [
        "sid",
        "es"
      ],
      [
        "p",
        "ict"
      ],
      [
        "z",
        "y"
      ],
      [
        "ke",
        "ts"
      ],
      [
        "see",
        "m"
      ],
      [
        "ci",
        "ally"
      ],
      [
        "pleas",
        "ure"
      ],
      [
        "w",
        "he"
      ],
      [
        "de",
        "pend"
      ],
      [
        "s",
        "we"
      ],
      [
        "i",
        "th"
      ],
      [
        "l",
        "ist"
      ],
      [
        "ha",
        "ps"
      ],
      [
        "per",
        "haps"
      ],
      [
        "com",
        "ple"
      ],
      [
        "b",
        "er"
      ],
      [
        "h",
        "und"
      ],
      [
        "l",
        "and"
      ],
      [
        "do",
        "or"
      ],
      [
        "ch",
        "r"
      ],
      [
        "qu",
        "ick"
      ],
      [
        "sat",
        "ur"
      ],
      [
        "hund",
        "red"
      ],
      [
        "chan",
        "ce"
      ],
      [
        "m",
        "as"
      ],
      [
        "wh",
        "ite"
      ],
      [
        "bo",
        "y"
      ],
      [
        "bo",
        "ard"
      ],
      [
        "po",
        "st"
      ],
      [
        "chan",
        "g"
      ],
      [
        "mad",
        "am"
      ],
      [
        "person",
        "al"
      ],
      [
        "e",
        "ither"
      ],
      [
        "l",
        "ing"
      ],
      [
        "v",
        "o"
      ],
      [
        "pe",
        "t"
      ],
      [
        "c",
        "up"
      ],
      [
        "ch",
        "ic"
      ],
      [
        "teach",
        "er"
      ],
      [
        "t",
        "went"
      ],
      [
        "fa",
        "ir"
      ],
      [
        "i",
        "ze"
      ],
      [
        "t",
        "w"
      ],
      [
        "sid",
        "er"
      ],
      [
        "appreci",
        "ate"
      ],
      [
        "j",
        "or"
      ],
      [
        "o",
        "ked"
      ],
      [
        "p",
        "ing"
      ],
      [
        "con",
        "sider"
      ],
      [
        "appoint",
        "ment"
      ],
      [
        "in",
        "sur"
      ],
      [
        "pro",
        "mis"
      ],
      [
        "con",
        "tract"
      ],
      [
        "bo",
        "x"
      ],
      [
        "il",
        "ity"
      ],
      [
        "fore",
        "ign"
      ],
      [
        "ren",
        "ce"
      ],
      [
        "thir",
        "ty"
      ],
      [
        "d",
        "ed"
      ],
      [
        "o",
        "per"
      ],
      [
        "p",
        "ur"
      ],
      [
        "we",
        "ight"
      ],
      [
        "res",
        "pon"
      ],
      [
        "bl",
        "ack"
      ],
      [
        "exerc",
        "ise"
      ],
      [
        "or",
        "k"
      ],
      [
        "fa",
        "ther"
      ],
      [
        "ta",
        "x"
      ],
      [
        "colle",
        "ge"
      ],
      [
        "diffic",
        "ult"
      ],
      [
        "c",
        "atch"
      ],
      [
        "s",
        "che"
      ],
      [
        "bo",
        "t"
      ],
      [
        "satur",
        "day"
      ],
      [
        "take",
        "s"
      ],
      [
        "gu",
        "y"
      ],
      [
        "lan",
        "gu"
      ],
      [
        "ic",
        "ation"
      ],
      [
        "n",
        "or"
      ],
      [
        "es",
        "pe"
      ],
      [
        "insur",
        "ance"
      ],
      [
        "for",
        "ward"
      ],
      [
        "app",
        "ly"
      ],
      [
        "flo",
        "or"
      ],
      [
        "espe",
        "cially"
      ],
      [
        "i",
        "al"
      ],
      [
        "l",
        "t"
      ],
      [
        "ho",
        "li"
      ],
      [
        "ate",
        "ly"
      ],
      [
        "let",
        "ter"
      ],
      [
        "full",
        "y"
      ],
      [
        "c",
        "hen"
      ],
      [
        "h",
        "us"
      ],
      [
        "tr",
        "a"
      ],
      [
        "wor",
        "ked"
      ],
      [
        "ex",
        "p"
      ],
      [
        "spe",
        "aking"
      ],
      [
        "twent",
        "y"
      ],
      [
        "me",
        "t"
      ],
      [
        "ar",
        "ri"
      ],
      [
        "jo",
        "in"
      ],
      [
        "wait",
        "ing"
      ],
      [
        "rece",
        "ive"
      ],
      [
        "americ",
        "an"
      ],
      [
        "m",
        "ine"
      ],
      [
        "s",
        "ick"
      ],
      [
        "we",
        "en"
      ],
      [
        "co",
        "p"
      ],
      [
        "tri",
        "ed"
      ],
      [
        "dec",
        "ided"
      ],
      [
        "quest",
        "ions"
      ],
      [
        "suppo",
        "sed"
      ],
      [
        "vac",
        "ation"
      ],
      [
        "f",
        "l"
      ],
      [
        "is",
        "ter"
      ],
      [
        "quest",
        "ion"
      ],
      [
        "sal",
        "ary"
      ],
      [
        "hus",
        "band"
      ],
      [
        "p",
        "ast"
      ],
      [
        "an",
        "e"
      ],
      [
        "me",
        "ans"
      ],
      [
        "ma",
        "jor"
      ],
      [
        "con",
        "cer"
      ],
      [
        "need",
        "s"
      ],
      [
        "pa",
        "ir"
      ],
      [
        "e",
        "ight"
      ],
      [
        "f",
        "all"
      ],
      [
        "r",
        "ate"
      ],
      [
        "w",
        "ow"
      ],
      [
        "at",
        "or"
      ],
      [
        "ke",
        "y"
      ],
      [
        "con",
        "ven"
      ],
      [
        "pop",
        "ular"
      ],
      [
        "o",
        "p"
      ],
      [
        "re",
        "cent"
      ],
      [
        "d",
        "ance"
      ],
      [
        "s",
        "po"
      ],
      [
        "v",
        "ir"
      ],
      [
        "w",
        "inter"
      ],
      [
        "was",
        "h"
      ],
      [
        "fo",
        "llow"
      ],
      [
        "pa",
        "id"
      ],
      [
        "d",
        "a"
      ],
      [
        "v",
        "ide"
      ],
      [
        "as",
        "ked"
      ],
      [
        "youn",
        "g"
      ],
      [
        "w",
        "ine"
      ],
      [
        "ar",
        "r"
      ],
      [
        "su",
        "per"
      ],
      [
        "ex",
        "tra"
      ],
      [
        "la",
        "w"
      ],
      [
        "terri",
        "ble"
      ],
      [
        "sty",
        "le"
      ],
      [
        "i",
        "gh"
      ],
      [
        "s",
        "of"
      ],
      [
        "te",
        "le"
      ],
      [
        "fo",
        "ot"
      ],
      [
        "emplo",
        "ye"
      ],
      [
        "w",
        "all"
      ],
      [
        "out",
        "side"
      ],
      [
        "one",
        "st"
      ],
      [
        "tr",
        "af"
      ],
      [
        "sa",
        "le"
      ],
      [
        "bet",
        "ween"
      ],
      [
        "clo",
        "se"
      ],
      [
        "fin",
        "ished"
      ],
      [
        "qual",
        "ity"
      ],
      [
        "gen",
        "er"
      ],
      [
        "grad",
        "u"
      ],
      [
        "h",
        "ate"
      ],
      [
        "p",
        "ho"
      ],
      [
        "re",
        "la"
      ],
      [
        "for",
        "got"
      ],
      [
        "go",
        "es"
      ],
      [
        "lo",
        "se"
      ],
      [
        "te",
        "en"
      ],
      [
        "sm",
        "ith"
      ],
      [
        "kid",
        "s"
      ],
      [
        "wind",
        "ow"
      ],
      [
        "sche",
        "du"
      ],
      [
        "traf",
        "fic"
      ],
      [
        "rela",
        "x"
      ],
      [
        "at",
        "ure"
      ],
      [
        "me",
        "di"
      ],
      [
        "en",
        "g"
      ],
      [
        "co",
        "ol"
      ],
      [
        "room",
        "s"
      ],
      [
        "in",
        "st"
      ],
      [
        "me",
        "s"
      ],
      [
        "be",
        "sides"
      ],
      [
        "pr",
        "act"
      ],
      [
        "part",
        "ic"
      ],
      [
        "sho",
        "p"
      ],
      [
        "f",
        "ish"
      ],
      [
        "k",
        "it"
      ],
      [
        "fin",
        "ish"
      ],
      [
        "suppo",
        "se"
      ],
      [
        "pre",
        "pare"
      ],
      [
        "read",
        "ing"
      ],
      [
        "sing",
        "le"
      ],
      [
        "fre",
        "sh"
      ],
      [
        "chic",
        "ken"
      ],
      [
        "m",
        "ag"
      ],
      [
        "att",
        "end"
      ],
      [
        "prof",
        "ess"
      ],
      [
        "a",
        "head"
      ],
      [
        "s",
        "wi"
      ],
      [
        "ad",
        "v"
      ],
      [
        "gre",
        "en"
      ],
      [
        "fr",
        "on"
      ],
      [
        "build",
        "ing"
      ],
      [
        "c",
        "lear"
      ],
      [
        "get",
        "s"
      ],
      [
        "ex",
        "cell"
      ],
      [
        "de",
        "li"
      ],
      [
        "pt",
        "ion"
      ],
      [
        "fi",
        "x"
      ],
      [
        "smo",
        "king"
      ],
      [
        "n",
        "ess"
      ],
      [
        "stu",
        "ff"
      ],
      [
        "cor",
        "d"
      ],
      [
        "mach",
        "ine"
      ],
      [
        "excell",
        "ent"
      ],
      [
        "b",
        "ye"
      ],
      [
        "es",
        "day"
      ],
      [
        "dis",
        "cus"
      ],
      [
        "pu",
        "bl"
      ],
      [
        "chr",
        "ist"
      ],
      [
        "fron",
        "t"
      ],
      [
        "g",
        "s"
      ],
      [
        "for",
        "t"
      ],
      [
        "take",
        "n"
      ],
      [
        "bo",
        "b"
      ],
      [
        "ck",
        "s"
      ],
      [
        "i",
        "er"
      ],
      [
        "mo",
        "v"
      ],
      [
        "de",
        "fin"
      ],
      [
        "si",
        "m"
      ],
      [
        "sport",
        "s"
      ],
      [
        "sol",
        "ut"
      ],
      [
        "d",
        "ar"
      ],
      [
        "f",
        "ig"
      ],
      [
        "h",
        "onest"
      ],
      [
        "in",
        "s"
      ],
      [
        "sh",
        "ir"
      ],
      [
        "ty",
        "pe"
      ],
      [
        "swi",
        "m"
      ],
      [
        "d",
        "ro"
      ],
      [
        "gr",
        "and"
      ],
      [
        "rece",
        "i"
      ],
      [
        "mov",
        "ies"
      ],
      [
        "man",
        "age"
      ],
      [
        "play",
        "ing"
      ],
      [
        "ste",
        "ad"
      ],
      [
        "sy",
        "ste"
      ],
      [
        "b",
        "i"
      ],
      [
        "d",
        "raw"
      ],
      [
        "f",
        "low"
      ],
      [
        "g",
        "if"
      ],
      [
        "l",
        "s"
      ],
      [
        "st",
        "ra"
      ],
      [
        "ie",
        "ld"
      ],
      [
        "doc",
        "u"
      ],
      [
        "c",
        "am"
      ],
      [
        "on",
        "line"
      ],
      [
        "st",
        "ep"
      ],
      [
        "ar",
        "ch"
      ],
      [
        "su",
        "c"
      ],
      [
        "kind",
        "s"
      ],
      [
        "dec",
        "is"
      ],
      [
        "pas",
        "sport"
      ],
      [
        "defin",
        "ite"
      ],
      [
        "d",
        "ad"
      ],
      [
        "m",
        "id"
      ],
      [
        "ve",
        "lo"
      ],
      [
        "st",
        "ation"
      ],
      [
        "le",
        "n"
      ],
      [
        "s",
        "ort"
      ],
      [
        "th",
        "ous"
      ],
      [
        "us",
        "ing"
      ],
      [
        "pro",
        "ject"
      ],
      [
        "ast",
        "ic"
      ],
      [
        "americ",
        "a"
      ],
      [
        "thous",
        "and"
      ],
      [
        "f",
        "ash"
      ],
      [
        "le",
        "a"
      ],
      [
        "as",
        "ses"
      ],
      [
        "any",
        "one"
      ],
      [
        "pp",
        "ed"
      ],
      [
        "tic",
        "kets"
      ],
      [
        "luck",
        "y"
      ],
      [
        "c",
        "ra"
      ],
      [
        "j",
        "ack"
      ],
      [
        "be",
        "come"
      ],
      [
        "al",
        "right"
      ],
      [
        "good",
        "s"
      ],
      [
        "see",
        "ing"
      ],
      [
        "a",
        "w"
      ],
      [
        "co",
        "ver"
      ],
      [
        "recent",
        "ly"
      ],
      [
        "b",
        "lu"
      ],
      [
        "g",
        "one"
      ],
      [
        "i",
        "li"
      ],
      [
        "y",
        "ork"
      ],
      [
        "ri",
        "b"
      ],
      [
        "ti",
        "fic"
      ],
      [
        "count",
        "ries"
      ],
      [
        "christ",
        "mas"
      ],
      [
        "c",
        "ap"
      ],
      [
        "u",
        "c"
      ],
      [
        "po",
        "l"
      ],
      [
        "pl",
        "ac"
      ],
      [
        "bro",
        "ther"
      ],
      [
        "stra",
        "ight"
      ],
      [
        "f",
        "ield"
      ],
      [
        "in",
        "ve"
      ],
      [
        "in",
        "stead"
      ],
      [
        "dis",
        "count"
      ],
      [
        "c",
        "ake"
      ],
      [
        "re",
        "qui"
      ],
      [
        "pho",
        "to"
      ],
      [
        "fash",
        "ion"
      ],
      [
        "d",
        "ouble"
      ],
      [
        "e",
        "yes"
      ],
      [
        "nt",
        "y"
      ],
      [
        "am",
        "ount"
      ],
      [
        "add",
        "ress"
      ],
      [
        "trans",
        "fer"
      ],
      [
        "holi",
        "day"
      ],
      [
        "m",
        "ic"
      ],
      [
        "o",
        "c"
      ],
      [
        "an",
        "n"
      ],
      [
        "we",
        "b"
      ],
      [
        "ad",
        "vice"
      ],
      [
        "cho",
        "ice"
      ],
      [
        "des",
        "ign"
      ],
      [
        "cus",
        "to"
      ],
      [
        "v",
        "ar"
      ],
      [
        "ve",
        "get"
      ],
      [
        "lot",
        "s"
      ],
      [
        "comple",
        "te"
      ],
      [
        "kit",
        "chen"
      ],
      [
        "h",
        "oney"
      ],
      [
        "s",
        "and"
      ],
      [
        "w",
        "an"
      ],
      [
        "to",
        "tal"
      ],
      [
        "ro",
        "ss"
      ],
      [
        "wor",
        "th"
      ],
      [
        "mon",
        "day"
      ],
      [
        "train",
        "ing"
      ],
      [
        "game",
        "s"
      ],
      [
        "o",
        "b"
      ],
      [
        "o",
        "pport"
      ],
      [
        "te",
        "mp"
      ],
      [
        "want",
        "s"
      ],
      [
        "con",
        "f"
      ],
      [
        "love",
        "ly"
      ],
      [
        "di",
        "rect"
      ],
      [
        "sho",
        "es"
      ],
      [
        "hur",
        "ry"
      ],
      [
        "opport",
        "un"
      ],
      [
        "c",
        "ing"
      ],
      [
        "l",
        "on"
      ],
      [
        "pro",
        "mo"
      ],
      [
        "sa",
        "ve"
      ],
      [
        "sur",
        "pr"
      ],
      [
        "conven",
        "ient"
      ],
      [
        "recei",
        "pt"
      ],
      [
        "h",
        "or"
      ],
      [
        "m",
        "ount"
      ],
      [
        "n",
        "ine"
      ],
      [
        "kid",
        "ding"
      ],
      [
        "syste",
        "m"
      ],
      [
        "ou",
        "ch"
      ],
      [
        "ment",
        "ion"
      ],
      [
        "ap",
        "pl"
      ],
      [
        "gr",
        "ound"
      ],
      [
        "cur",
        "rent"
      ],
      [
        "blu",
        "e"
      ],
      [
        "p",
        "or"
      ],
      [
        "t",
        "ion"
      ],
      [
        "u",
        "al"
      ],
      [
        "re",
        "f"
      ],
      [
        "ti",
        "es"
      ],
      [
        "de",
        "tail"
      ],
      [
        "fam",
        "ous"
      ],
      [
        "watch",
        "ing"
      ],
      [
        "sen",
        "se"
      ],
      [
        "definite",
        "ly"
      ],
      [
        "w",
        "er"
      ],
      [
        "ver",
        "t"
      ],
      [
        "mu",
        "m"
      ],
      [
        "qu",
        "e"
      ],
      [
        "int",
        "ro"
      ],
      [
        "plan",
        "ning"
      ],
      [
        "lea",
        "ving"
      ],
      [
        "c",
        "as"
      ],
      [
        "en",
        "ter"
      ],
      [
        "lo",
        "g"
      ],
      [
        "de",
        "ar"
      ],
      [
        "ent",
        "ion"
      ],
      [
        "hand",
        "le"
      ],
      [
        "langu",
        "age"
      ],
      [
        "cra",
        "zy"
      ],
      [
        "s",
        "ong"
      ],
      [
        "he",
        "art"
      ],
      [
        "de",
        "velo"
      ],
      [
        "c",
        "ked"
      ],
      [
        "g",
        "ent"
      ],
      [
        "m",
        "m"
      ],
      [
        "se",
        "arch"
      ],
      [
        "are",
        "a"
      ],
      [
        "sou",
        "p"
      ],
      [
        "tre",
        "at"
      ],
      [
        "tast",
        "e"
      ],
      [
        "whe",
        "ther"
      ],
      [
        "promis",
        "e"
      ],
      [
        "schedu",
        "le"
      ],
      [
        "discus",
        "s"
      ],
      [
        "decis",
        "ion"
      ],
      [
        "s",
        "li"
      ],
      [
        "go",
        "d"
      ],
      [
        "ne",
        "igh"
      ],
      [
        "ant",
        "s"
      ],
      [
        "mar",
        "k"
      ],
      [
        "care",
        "ful"
      ],
      [
        "des",
        "k"
      ],
      [
        "clu",
        "b"
      ],
      [
        "student",
        "s"
      ],
      [
        "o",
        "s"
      ],
      [
        "p",
        "an"
      ],
      [
        "le",
        "ad"
      ],
      [
        "tr",
        "u"
      ],
      [
        "should",
        "n"
      ],
      [
        "ill",
        "s"
      ],
      [
        "gr",
        "ow"
      ],
      [
        "suc",
        "cess"
      ],
      [
        "b",
        "al"
      ],
      [
        "d",
        "y"
      ],
      [
        "s",
        "ister"
      ],
      [
        "me",
        "at"
      ],
      [
        "for",
        "d"
      ],
      [
        "ver",
        "n"
      ],
      [
        "per",
        "for"
      ],
      [
        "pl",
        "ans"
      ],
      [
        "il",
        "k"
      ],
      [
        "ser",
        "v"
      ],
      [
        "b",
        "ath"
      ],
      [
        "d",
        "am"
      ],
      [
        "se",
        "l"
      ],
      [
        "se",
        "cre"
      ],
      [
        "he",
        "av"
      ],
      [
        "lo",
        "cal"
      ],
      [
        "te",
        "ch"
      ],
      [
        "sa",
        "ge"
      ],
      [
        "fir",
        "m"
      ],
      [
        "exc",
        "iting"
      ],
      [
        "ta",
        "i"
      ],
      [
        "run",
        "ning"
      ],
      [
        "cont",
        "act"
      ],
      [
        "pie",
        "ce"
      ],
      [
        "employe",
        "es"
      ],
      [
        "mount",
        "ain"
      ],
      [
        "f",
        "urn"
      ],
      [
        "p",
        "at"
      ],
      [
        "ex",
        "change"
      ],
      [
        "inter",
        "national"
      ],
      [
        "wed",
        "ding"
      ],
      [
        "str",
        "ong"
      ],
      [
        "study",
        "ing"
      ],
      [
        "c",
        "at"
      ],
      [
        "h",
        "ang"
      ],
      [
        "li",
        "br"
      ],
      [
        "un",
        "g"
      ],
      [
        "other",
        "s"
      ],
      [
        "partic",
        "ular"
      ],
      [
        "publ",
        "ic"
      ],
      [
        "p",
        "ound"
      ],
      [
        "st",
        "ar"
      ],
      [
        "ad",
        "vert"
      ],
      [
        "res",
        "sed"
      ],
      [
        "si",
        "b"
      ],
      [
        "gr",
        "ap"
      ],
      [
        "j",
        "im"
      ],
      [
        "or",
        "g"
      ],
      [
        "bab",
        "y"
      ],
      [
        "break",
        "fast"
      ],
      [
        "lon",
        "don"
      ],
      [
        "f",
        "ut"
      ],
      [
        "ab",
        "solut"
      ],
      [
        "new",
        "sp"
      ],
      [
        "fr",
        "u"
      ],
      [
        "reg",
        "ular"
      ],
      [
        "exam",
        "ple"
      ],
      [
        "inve",
        "st"
      ],
      [
        "libr",
        "ary"
      ],
      [
        "fut",
        "ure"
      ],
      [
        "absolut",
        "e"
      ],
      [
        "newsp",
        "aper"
      ],
      [
        "b",
        "ase"
      ],
      [
        "c",
        "u"
      ],
      [
        "h",
        "it"
      ],
      [
        "r",
        "ound"
      ],
      [
        "v",
        "i"
      ],
      [
        "ic",
        "y"
      ],
      [
        "ne",
        "cess"
      ],
      [
        "ac",
        "cor"
      ],
      [
        "com",
        "for"
      ],
      [
        "wonder",
        "ing"
      ],
      [
        "dec",
        "ide"
      ],
      [
        "cont",
        "in"
      ],
      [
        "au",
        "ght"
      ],
      [
        "med",
        "ic"
      ],
      [
        "fil",
        "m"
      ],
      [
        "quick",
        "ly"
      ],
      [
        "d",
        "en"
      ],
      [
        "g",
        "i"
      ],
      [
        "r",
        "ic"
      ],
      [
        "st",
        "ick"
      ],
      [
        "ple",
        "nty"
      ],
      [
        "de",
        "l"
      ],
      [
        "pl",
        "ain"
      ],
      [
        "pay",
        "ment"
      ],
      [
        "wr",
        "iting"
      ],
      [
        "pict",
        "ure"
      ],
      [
        "intro",
        "du"
      ],
      [
        "secre",
        "t"
      ],
      [
        "re",
        "cord"
      ],
      [
        "go",
        "vern"
      ],
      [
        "ed",
        "uc"
      ],
      [
        "de",
        "gre"
      ],
      [
        "ap",
        "pe"
      ],
      [
        "com",
        "m"
      ],
      [
        "br",
        "and"
      ],
      [
        "long",
        "er"
      ],
      [
        "fin",
        "ally"
      ],
      [
        "dri",
        "ving"
      ],
      [
        "gif",
        "t"
      ],
      [
        "perfor",
        "man"
      ],
      [
        "comfor",
        "table"
      ],
      [
        "d",
        "re"
      ],
      [
        "r",
        "id"
      ],
      [
        "v",
        "in"
      ],
      [
        "w",
        "in"
      ],
      [
        "lo",
        "an"
      ],
      [
        "ri",
        "end"
      ],
      [
        "per",
        "cent"
      ],
      [
        "depend",
        "s"
      ],
      [
        "plac",
        "es"
      ],
      [
        "f",
        "ly"
      ],
      [
        "v",
        "id"
      ],
      [
        "v",
        "ate"
      ],
      [
        "am",
        "az"
      ],
      [
        "po",
        "lic"
      ],
      [
        "con",
        "ne"
      ],
      [
        "che",
        "s"
      ],
      [
        "count",
        "er"
      ],
      [
        "lf",
        "riend"
      ],
      [
        "gir",
        "lfriend"
      ],
      [
        "foot",
        "ball"
      ],
      [
        "accor",
        "ding"
      ],
      [
        "c",
        "amer"
      ],
      [
        "f",
        "ren"
      ],
      [
        "m",
        "ill"
      ],
      [
        "t",
        "ouch"
      ],
      [
        "ou",
        "d"
      ],
      [
        "be",
        "ne"
      ],
      [
        "if",
        "ic"
      ],
      [
        "ex",
        "cept"
      ],
      [
        "work",
        "s"
      ],
      [
        "af",
        "f"
      ],
      [
        "comp",
        "an"
      ],
      [
        "ans",
        "wer"
      ],
      [
        "mag",
        "az"
      ],
      [
        "veget",
        "able"
      ],
      [
        "b",
        "ur"
      ],
      [
        "s",
        "an"
      ],
      [
        "t",
        "ur"
      ],
      [
        "ro",
        "ll"
      ],
      [
        "ho",
        "sp"
      ],
      [
        "ition",
        "al"
      ],
      [
        "sun",
        "day"
      ],
      [
        "absolute",
        "ly"
      ],
      [
        "fren",
        "ch"
      ],
      [
        "d",
        "av"
      ],
      [
        "j",
        "ap"
      ],
      [
        "u",
        "ght"
      ],
      [
        "on",
        "ment"
      ],
      [
        "en",
        "vir"
      ],
      [
        "ce",
        "l"
      ],
      [
        "cl",
        "asses"
      ],
      [
        "gu",
        "est"
      ],
      [
        "gu",
        "ys"
      ],
      [
        "br",
        "own"
      ],
      [
        "imp",
        "ro"
      ],
      [
        "ask",
        "ing"
      ],
      [
        "qui",
        "et"
      ],
      [
        "heav",
        "y"
      ],
      [
        "che",
        "d"
      ],
      [
        "exc",
        "ited"
      ],
      [
        "bed",
        "room"
      ],
      [
        "sat",
        "is"
      ],
      [
        "envir",
        "onment"
      ],
      [
        "c",
        "ars"
      ],
      [
        "e",
        "ye"
      ],
      [
        "l",
        "in"
      ],
      [
        "w",
        "om"
      ],
      [
        "sto",
        "ck"
      ],
      [
        "car",
        "ry"
      ],
      [
        "cor",
        "rect"
      ],
      [
        "eat",
        "ing"
      ],
      [
        "att",
        "ention"
      ],
      [
        "girl",
        "s"
      ],
      [
        "pol",
        "ice"
      ],
      [
        "org",
        "an"
      ],
      [
        "amaz",
        "ing"
      ],
      [
        "af",
        "ford"
      ],
      [
        "sa",
        "fe"
      ],
      [
        "say",
        "ing"
      ],
      [
        "emplo",
        "y"
      ],
      [
        "health",
        "y"
      ],
      [
        "arr",
        "ange"
      ],
      [
        "hosp",
        "ital"
      ],
      [
        "wom",
        "an"
      ],
      [
        "s",
        "ight"
      ],
      [
        "be",
        "er"
      ],
      [
        "su",
        "pp"
      ],
      [
        "not",
        "ice"
      ],
      [
        "sp",
        "ace"
      ],
      [
        "fin",
        "al"
      ],
      [
        "lear",
        "ning"
      ],
      [
        "sk",
        "in"
      ],
      [
        "govern",
        "ment"
      ],
      [
        "dav",
        "id"
      ],
      [
        "e",
        "con"
      ],
      [
        "e",
        "gg"
      ],
      [
        "k",
        "new"
      ],
      [
        "me",
        "al"
      ],
      [
        "di",
        "et"
      ],
      [
        "diffe",
        "rence"
      ],
      [
        "cre",
        "am"
      ],
      [
        "learn",
        "ed"
      ],
      [
        "ele",
        "c"
      ],
      [
        "resu",
        "me"
      ],
      [
        "wash",
        "ing"
      ],
      [
        "swim",
        "ming"
      ],
      [
        "develo",
        "p"
      ],
      [
        "compan",
        "ies"
      ],
      [
        "d",
        "aught"
      ],
      [
        "er",
        "ature"
      ],
      [
        "de",
        "lic"
      ],
      [
        "plan",
        "e"
      ],
      [
        "word",
        "s"
      ],
      [
        "cli",
        "ent"
      ],
      [
        "fort",
        "un"
      ],
      [
        "performan",
        "ce"
      ],
      [
        "s",
        "ite"
      ],
      [
        "s",
        "ci"
      ],
      [
        "st",
        "ate"
      ],
      [
        "ic",
        "ed"
      ],
      [
        "all",
        "ow"
      ],
      [
        "sp",
        "ring"
      ],
      [
        "his",
        "tory"
      ],
      [
        "ru",
        "sh"
      ],
      [
        "air",
        "port"
      ],
      [
        "cus",
        "tom"
      ],
      [
        "manage",
        "ment"
      ],
      [
        "appl",
        "ication"
      ],
      [
        "c",
        "ident"
      ],
      [
        "n",
        "ed"
      ],
      [
        "s",
        "co"
      ],
      [
        "re",
        "li"
      ],
      [
        "ve",
        "l"
      ],
      [
        "wor",
        "ried"
      ],
      [
        "ur",
        "al"
      ],
      [
        "pr",
        "ices"
      ],
      [
        "ass",
        "ist"
      ],
      [
        "lu",
        "gg"
      ],
      [
        "enjoy",
        "ed"
      ],
      [
        "cond",
        "ition"
      ],
      [
        "mi",
        "ke"
      ],
      [
        "sim",
        "ple"
      ],
      [
        "necess",
        "ary"
      ],
      [
        "p",
        "m"
      ],
      [
        "is",
        "ed"
      ],
      [
        "st",
        "aff"
      ],
      [
        "with",
        "in"
      ],
      [
        "tr",
        "ust"
      ],
      [
        "ap",
        "ple"
      ],
      [
        "op",
        "in"
      ],
      [
        "c",
        "tor"
      ],
      [
        "g",
        "ar"
      ],
      [
        "s",
        "qu"
      ],
      [
        "is",
        "ing"
      ],
      [
        "ac",
        "tive"
      ],
      [
        "ex",
        "t"
      ],
      [
        "po",
        "t"
      ],
      [
        "ty",
        "p"
      ],
      [
        "buy",
        "ing"
      ],
      [
        "card",
        "s"
      ],
      [
        "cost",
        "s"
      ],
      [
        "cont",
        "ro"
      ],
      [
        "detail",
        "s"
      ],
      [
        "sel",
        "ves"
      ],
      [
        "elec",
        "tr"
      ],
      [
        "lugg",
        "age"
      ],
      [
        "g",
        "ave"
      ],
      [
        "u",
        "ce"
      ],
      [
        "v",
        "ous"
      ],
      [
        "le",
        "nt"
      ],
      [
        "lo",
        "ad"
      ],
      [
        "ast",
        "er"
      ],
      [
        "comp",
        "l"
      ],
      [
        "job",
        "s"
      ],
      [
        "ile",
        "d"
      ],
      [
        "pri",
        "vate"
      ],
      [
        "cop",
        "y"
      ],
      [
        "medic",
        "ine"
      ],
      [
        "c",
        "tive"
      ],
      [
        "l",
        "ad"
      ],
      [
        "m",
        "ater"
      ],
      [
        "on",
        "d"
      ],
      [
        "do",
        "g"
      ],
      [
        "can",
        "not"
      ],
      [
        "your",
        "s"
      ],
      [
        "su",
        "e"
      ],
      [
        "any",
        "more"
      ],
      [
        "some",
        "where"
      ],
      [
        "di",
        "re"
      ],
      [
        "ner",
        "vous"
      ],
      [
        "cook",
        "ing"
      ],
      [
        "neigh",
        "bor"
      ],
      [
        "f",
        "lu"
      ],
      [
        "h",
        "ind"
      ],
      [
        "k",
        "ill"
      ],
      [
        "n",
        "ic"
      ],
      [
        "r",
        "ide"
      ],
      [
        "s",
        "me"
      ],
      [
        "se",
        "ason"
      ],
      [
        "what",
        "ever"
      ],
      [
        "ust",
        "r"
      ],
      [
        "po",
        "or"
      ],
      [
        "tell",
        "ing"
      ],
      [
        "give",
        "n"
      ],
      [
        "trad",
        "e"
      ],
      [
        "tax",
        "i"
      ],
      [
        "grap",
        "h"
      ],
      [
        "vegetable",
        "s"
      ],
      [
        "daught",
        "er"
      ],
      [
        "c",
        "and"
      ],
      [
        "f",
        "its"
      ],
      [
        "m",
        "atch"
      ],
      [
        "s",
        "low"
      ],
      [
        "in",
        "side"
      ],
      [
        "se",
        "ction"
      ],
      [
        "ac",
        "cident"
      ],
      [
        "te",
        "e"
      ],
      [
        "use",
        "s"
      ],
      [
        "every",
        "body"
      ],
      [
        "wo",
        "men"
      ],
      [
        "cor",
        "ner"
      ],
      [
        "late",
        "ly"
      ],
      [
        "vis",
        "a"
      ],
      [
        "par",
        "king"
      ],
      [
        "drink",
        "s"
      ],
      [
        "high",
        "er"
      ],
      [
        "blo",
        "od"
      ],
      [
        "tu",
        "esday"
      ],
      [
        "receive",
        "d"
      ],
      [
        "fru",
        "it"
      ],
      [
        "f",
        "ur"
      ],
      [
        "g",
        "ain"
      ],
      [
        "in",
        "cre"
      ],
      [
        "an",
        "im"
      ],
      [
        "ha",
        "i"
      ],
      [
        "pro",
        "vide"
      ],
      [
        "mr",
        "s"
      ],
      [
        "reg",
        "is"
      ],
      [
        "custo",
        "mer"
      ],
      [
        "d",
        "ut"
      ],
      [
        "me",
        "nu"
      ],
      [
        "be",
        "ef"
      ],
      [
        "be",
        "hind"
      ],
      [
        "li",
        "er"
      ],
      [
        "ab",
        "ility"
      ],
      [
        "ind",
        "ust"
      ],
      [
        "over",
        "time"
      ],
      [
        "cl",
        "a"
      ],
      [
        "wo",
        "od"
      ],
      [
        "late",
        "st"
      ],
      [
        "dri",
        "ver"
      ],
      [
        "thir",
        "d"
      ],
      [
        "sub",
        "way"
      ],
      [
        "pack",
        "age"
      ],
      [
        "shir",
        "t"
      ],
      [
        "docu",
        "ments"
      ],
      [
        "n",
        "on"
      ],
      [
        "sh",
        "i"
      ],
      [
        "pro",
        "per"
      ],
      [
        "ap",
        "pro"
      ],
      [
        "ite",
        "ms"
      ],
      [
        "cho",
        "co"
      ],
      [
        "ang",
        "er"
      ],
      [
        "fam",
        "ili"
      ],
      [
        "war",
        "m"
      ],
      [
        "cri",
        "ption"
      ],
      [
        "swe",
        "et"
      ],
      [
        "concer",
        "t"
      ],
      [
        "mes",
        "sage"
      ],
      [
        "comm",
        "un"
      ],
      [
        "h",
        "on"
      ],
      [
        "st",
        "ates"
      ],
      [
        "ne",
        "y"
      ],
      [
        "like",
        "s"
      ],
      [
        "ti",
        "v"
      ],
      [
        "de",
        "ad"
      ],
      [
        "qu",
        "it"
      ],
      [
        "ct",
        "ed"
      ],
      [
        "sp",
        "ent"
      ],
      [
        "mb",
        "ers"
      ],
      [
        "cer",
        "tific"
      ],
      [
        "sk",
        "ills"
      ],
      [
        "peri",
        "od"
      ],
      [
        "fortun",
        "ately"
      ],
      [
        "f",
        "at"
      ],
      [
        "some",
        "time"
      ],
      [
        "il",
        "ities"
      ],
      [
        "che",
        "ap"
      ],
      [
        "fac",
        "tory"
      ],
      [
        "tw",
        "ice"
      ],
      [
        "deli",
        "very"
      ],
      [
        "flow",
        "ers"
      ],
      [
        "custom",
        "ers"
      ],
      [
        "ve",
        "red"
      ],
      [
        "we",
        "st"
      ],
      [
        "ic",
        "le"
      ],
      [
        "co",
        "vered"
      ],
      [
        "ad",
        "e"
      ],
      [
        "ti",
        "re"
      ],
      [
        "che",
        "aper"
      ],
      [
        "course",
        "s"
      ],
      [
        "vis",
        "ion"
      ],
      [
        "rel",
        "ation"
      ],
      [
        "serv",
        "ices"
      ],
      [
        "dre",
        "am"
      ],
      [
        "d",
        "le"
      ],
      [
        "m",
        "ate"
      ],
      [
        "p",
        "ow"
      ],
      [
        "s",
        "am"
      ],
      [
        "v",
        "a"
      ],
      [
        "er",
        "t"
      ],
      [
        "le",
        "g"
      ],
      [
        "be",
        "ach"
      ],
      [
        "un",
        "k"
      ],
      [
        "ard",
        "en"
      ],
      [
        "fin",
        "an"
      ],
      [
        "pu",
        "ll"
      ],
      [
        "gy",
        "m"
      ],
      [
        "requi",
        "re"
      ],
      [
        "pound",
        "s"
      ],
      [
        "impro",
        "ve"
      ],
      [
        "a",
        "po"
      ],
      [
        "l",
        "ts"
      ],
      [
        "n",
        "at"
      ],
      [
        "n",
        "is"
      ],
      [
        "w",
        "ang"
      ],
      [
        "on",
        "na"
      ],
      [
        "lo",
        "c"
      ],
      [
        "will",
        "ing"
      ],
      [
        "ex",
        "plain"
      ],
      [
        "ur",
        "s"
      ],
      [
        "char",
        "g"
      ],
      [
        "miss",
        "ion"
      ],
      [
        "chang",
        "ed"
      ],
      [
        "sof",
        "t"
      ],
      [
        "pract",
        "ice"
      ],
      [
        "fig",
        "ure"
      ],
      [
        "polic",
        "y"
      ],
      [
        "g",
        "age"
      ],
      [
        "i",
        "ed"
      ],
      [
        "th",
        "row"
      ],
      [
        "st",
        "even"
      ],
      [
        "we",
        "ver"
      ],
      [
        "ic",
        "ally"
      ],
      [
        "ti",
        "e"
      ],
      [
        "wor",
        "se"
      ],
      [
        "ho",
        "wever"
      ],
      [
        "gr",
        "ou"
      ],
      [
        "happen",
        "s"
      ],
      [
        "move",
        "d"
      ],
      [
        "sal",
        "ad"
      ],
      [
        "dar",
        "k"
      ],
      [
        "complete",
        "ly"
      ],
      [
        "gi",
        "ving"
      ],
      [
        "delic",
        "ious"
      ],
      [
        "contro",
        "l"
      ],
      [
        "b",
        "on"
      ],
      [
        "g",
        "as"
      ],
      [
        "j",
        "ane"
      ],
      [
        "t",
        "all"
      ],
      [
        "re",
        "mind"
      ],
      [
        "er",
        "y"
      ],
      [
        "ac",
        "he"
      ],
      [
        "sh",
        "ang"
      ],
      [
        "sa",
        "ving"
      ],
      [
        "check",
        "ing"
      ],
      [
        "bro",
        "ke"
      ],
      [
        "colle",
        "ct"
      ],
      [
        "opin",
        "ion"
      ],
      [
        "d",
        "ry"
      ],
      [
[...]
